<pad>	0
<unk>	0
<s>	0
</s>	0
ال	-0
▁t	-1
▁ال	-2
he	-3
▁أ	-4
▁a	-5
▁م	-6
▁ل	-7
in	-8
ou	-9
▁w	-10
re	-11
▁s	-12
is	-13
▁ت	-14
▁I	-15
ha	-16
▁س	-17
▁ي	-18
on	-19
▁m	-20
▁the	-21
▁ب	-22
▁to	-23
er	-24
▁d	-25
▁c	-26
ام	-27
▁ف	-28
ed	-29
▁b	-30
▁ك	-31
ان	-32
▁S	-33
▁ه	-34
▁y	-35
▁l	-36
an	-37
am	-38
▁f	-39
▁ع	-40
▁T	-41
▁أن	-42
▁you	-43
or	-44
en	-45
ing	-46
om	-47
لى	-48
it	-49
امي	-50
ami	-51
▁Sami	-52
ll	-53
▁سامي	-54
▁p	-55
▁h	-56
ay	-57
es	-58
as	-59
▁و	-60
▁من	-61
▁is	-62
▁إ	-63
▁في	-64
ar	-65
▁n	-66
▁o	-67
ve	-68
▁ha	-69
▁in	-70
▁الم	-71
at	-72
▁g	-73
hat	-74
نا	-75
ري	-76
▁an	-77
▁W	-78
▁he	-79
ot	-80
▁ح	-81
ow	-82
ها	-83
et	-84
▁لي	-85
وم	-86
▁of	-87
▁كان	-88
را	-89
ic	-90
دي	-91
▁ق	-92
le	-93
▁was	-94
▁ما	-95
▁لا	-96
لي	-97
im	-98
▁ا	-99
us	-100
ذا	-101
▁ن	-102
id	-103
▁L	-104
يا	-105
▁be	-106
▁H	-107
▁li	-108
▁The	-109
▁ج	-110
la	-111
▁th	-112
ما	-113
ست	-114
▁do	-115
لا	-116
ad	-117
ين	-118
▁e	-119
ld	-120
ver	-121
لك	-122
▁me	-123
oo	-124
▁re	-125
▁for	-126
ية	-127
ke	-128
ون	-129
دا	-130
▁on	-131
▁M	-132
al	-133
▁Lay	-134
▁Layla	-135
▁ش	-136
▁الأ	-137
▁that	-138
▁st	-139
▁Tom	-140
رة	-141
ent	-142
▁على	-143
▁ليلى	-144
▁Y	-145
▁لم	-146
با	-147
▁and	-148
▁توم	-149
gh	-150
ني	-151
ri	-152
▁إلى	-153
her	-154
ac	-155
▁He	-156
se	-157
▁A	-158
ول	-159
il	-160
▁You	-161
ذه	-162
▁D	-163
▁have	-164
بي	-165
ion	-166
لم	-167
▁ر	-168
▁k	-169
▁are	-170
ant	-171
▁his	-172
▁عن	-173
كن	-174
▁هل	-175
وا	-176
st	-177
▁بال	-178
un	-179
▁ne	-180
ill	-181
ith	-182
دة	-183
▁we	-184
ّا	-185
▁it	-186
ut	-187
ome	-188
تي	-189
قد	-190
▁F	-191
▁with	-192
ro	-193
▁ص	-194
▁أنا	-195
سا	-196
ght	-197
▁الع	-198
▁هذا	-199
out	-200
ly	-201
ير	-202
▁my	-203
ته	-204
▁مع	-205
▁إن	-206
▁not	-207
▁الح	-208
▁go	-209
▁your	-210
تا	-211
ir	-212
ch	-213
ter	-214
▁ط	-215
قا	-216
all	-217
fe	-218
ّة	-219
▁want	-220
▁غ	-221
در	-222
ur	-223
▁خ	-224
ذلك	-225
▁at	-226
رف	-227
حد	-228
very	-229
▁الك	-230
pp	-231
ضل	-232
▁can	-233
▁this	-234
ould	-235
▁kn	-236
▁الس	-237
لة	-238
حب	-239
عد	-240
▁him	-241
one	-242
ook	-243
ce	-244
ho	-245
ra	-246
▁هنا	-247
▁did	-248
▁C	-249
▁She	-250
▁te	-251
end	-252
ً.	-253
▁كل	-254
ريد	-255
▁تع	-256
▁الج	-257
تك	-258
▁We	-259
▁se	-260
▁د	-261
▁It	-262
▁know	-263
مل	-264
▁wor	-265
▁as	-266
ار	-267
▁الت	-268
▁ان	-269
ct	-270
▁don	-271
▁لل	-272
▁her	-273
▁هو	-274
مي	-275
عة	-276
▁ذلك	-277
▁like	-278
▁فا	-279
▁أع	-280
▁علي	-281
▁lo	-282
نت	-283
adil	-284
▁Fadil	-285
هم	-286
pe	-287
ust	-288
ry	-289
سي	-290
▁أخ	-291
ge	-292
▁What	-293
رب	-294
عل	-295
ak	-296
ist	-297
▁"	-298
ore	-299
▁الش	-300
▁يع	-301
up	-302
▁هذه	-303
han	-304
▁ab	-305
▁B	-306
قي	-307
▁has	-308
th	-309
▁fr	-310
▁فاضل	-311
صل	-312
▁Th	-313
▁j	-314
our	-315
▁le	-316
بر	-317
ات	-318
يف	-319
▁E	-320
كل	-321
▁life	-322
وق	-323
▁أي	-324
if	-325
سب	-326
ol	-327
est	-328
ور	-329
▁This	-330
ذهب	-331
▁كانت	-332
▁Do	-333
▁الإ	-334
مكن	-335
قة	-336
▁sh	-337
▁الق	-338
ake	-339
▁will	-340
ood	-341
ice	-342
▁al	-343
▁com	-344
ked	-345
▁r	-346
▁الف	-347
▁from	-348
▁P	-349
يد	-350
red	-351
▁us	-352
▁الن	-353
nd	-354
طي	-355
▁had	-356
▁لقد	-357
ul	-358
▁cl	-359
ation	-360
▁what	-361
op	-362
here	-363
▁الص	-364
▁أم	-365
▁all	-366
بل	-367
ame	-368
ink	-369
▁up	-370
▁أنت	-371
▁de	-372
▁مت	-373
فا	-374
رك	-375
اد	-376
رّ	-377
▁su	-378
▁one	-379
▁هي	-380
▁لدي	-381
▁J	-382
▁الط	-383
دّ	-384
▁un	-385
▁any	-386
عت	-387
ًا	-388
▁My	-389
▁شي	-390
بة	-391
رت	-392
▁so	-393
▁G	-394
▁وا	-395
hy	-396
كان	-397
ast	-398
ble	-399
qu	-400
▁N	-401
▁يت	-402
ind	-403
os	-404
▁الذ	-405
▁about	-406
ائ	-407
ary	-408
▁here	-409
art	-410
وج	-411
ime	-412
ive	-413
▁ex	-414
كون	-415
▁out	-416
حة	-417
زل	-418
and	-419
وي	-420
▁con	-421
▁very	-422
▁سأ	-423
ig	-424
▁الخ	-425
▁didn	-426
رج	-427
▁لن	-428
ّي	-429
ved	-430
ase	-431
▁حيا	-432
▁آ	-433
▁سي	-434
day	-435
ain	-436
other	-437
▁sa	-438
▁الب	-439
كر	-440
سم	-441
ate	-442
▁أت	-443
ight	-444
▁man	-445
▁pl	-446
ber	-447
ong	-448
حا	-449
ess	-450
ود	-451
▁look	-452
el	-453
طة	-454
▁time	-455
ren	-456
ally	-457
حت	-458
▁v	-459
▁ليس	-460
der	-461
ish	-462
يش	-463
▁عند	-464
اء	-465
▁هناك	-466
سة	-467
▁الل	-468
▁no	-469
▁see	-470
▁too	-471
حي	-472
أن	-473
▁tr	-474
قت	-475
hen	-476
▁يمكن	-477
تب	-478
لب	-479
▁است	-480
ud	-481
▁مش	-482
od	-483
▁.	-484
▁need	-485
▁by	-486
▁را	-487
ck	-488
▁think	-489
جب	-490
ard	-491
ie	-492
▁going	-493
ous	-494
ouse	-495
▁happ	-496
riend	-497
▁ز	-498
res	-499
▁get	-500
▁does	-501
hi	-502
▁spe	-503
▁الي	-504
▁am	-505
▁تق	-506
ave	-507
▁تت	-508
▁int	-509
lease	-510
جا	-511
مر	-512
ّر	-513
▁teac	-514
▁house	-515
طيع	-516
▁ar	-517
pt	-518
▁بع	-519
سل	-520
▁Is	-521
▁or	-522
▁How	-523
▁الآ	-524
ays	-525
▁أين	-526
▁book	-527
ves	-528
ang	-529
hing	-530
ity	-531
عب	-532
▁work	-533
um	-534
▁there	-535
▁Why	-536
ack	-537
ass	-538
get	-539
ort	-540
رى	-541
لق	-542
نس	-543
▁but	-544
▁They	-545
lp	-546
▁لك	-547
▁car	-548
بد	-549
▁pro	-550
ستطيع	-551
ers	-552
▁بد	-553
▁وال	-554
مة	-555
▁sp	-556
ep	-557
ide	-558
▁every	-559
▁friend	-560
▁co	-561
▁she	-562
etter	-563
▁Mary	-564
▁أف	-565
▁ث	-566
ثير	-567
▁help	-568
▁كنت	-569
alk	-570
▁who	-571
▁come	-572
▁teacher	-573
اف	-574
▁أنّ	-575
ظر	-576
غي	-577
وب	-578
ound	-579
▁Don	-580
▁than	-581
▁ag	-582
▁That	-583
ap	-584
زي	-585
لت	-586
▁home	-587
اب	-588
ear	-589
▁أص	-590
نة	-591
▁Where	-592
▁just	-593
▁some	-594
▁were	-595
▁أريد	-596
وت	-597
▁There	-598
oney	-599
▁كيف	-600
سر	-601
▁O	-602
▁أحد	-603
▁أك	-604
▁يحب	-605
▁should	-606
▁جدا	-607
▁speak	-608
▁qu	-609
فس	-610
▁never	-611
حدث	-612
▁pr	-613
▁pe	-614
▁ست	-615
ather	-616
▁dog	-617
row	-618
▁ماذا	-619
ree	-620
▁ro	-621
▁been	-622
▁love	-623
ool	-624
▁money	-625
▁went	-626
قط	-627
▁ri	-628
▁إنه	-629
lf	-630
▁شيء	-631
وع	-632
ite	-633
▁أق	-634
▁أب	-635
▁أو	-636
▁الذي	-637
▁would	-638
▁fe	-639
ven	-640
▁good	-641
لّ	-642
هر	-643
يت	-644
age	-645
thing	-646
▁المدر	-647
▁ماري	-648
▁wr	-649
ople	-650
جد	-651
مت	-652
▁stud	-653
▁عليك	-654
▁أح	-655
▁بإ	-656
▁كي	-657
▁wat	-658
اني	-659
▁الا	-660
ng	-661
hed	-662
رأ	-663
ait	-664
ian	-665
."	-666
خص	-667
شت	-668
▁mo	-669
عي	-670
▁call	-671
▁more	-672
em	-673
ضي	-674
▁يا	-675
مكان	-676
▁new	-677
▁الآن	-678
في	-679
▁af	-680
▁اليوم	-681
▁wanted	-682
ob	-683
ثر	-684
▁right	-685
عا	-686
عر	-687
جة	-688
ick	-689
ody	-690
▁ke	-691
▁نح	-692
▁تم	-693
▁tell	-694
▁البا	-695
ine	-696
جل	-697
▁يق	-698
▁off	-699
▁بعد	-700
▁تح	-701
▁say	-702
▁back	-703
▁read	-704
▁now	-705
▁أحب	-706
▁people	-707
nt	-708
فت	-709
▁ين	-710
▁our	-711
بح	-712
▁رأ	-713
▁comp	-714
▁المن	-715
▁حا	-716
▁لما	-717
ought	-718
▁bec	-719
▁under	-720
خر	-721
chool	-722
تاب	-723
▁بإمكان	-724
فعل	-725
▁br	-726
▁عا	-727
▁day	-728
▁got	-729
▁forget	-730
▁تلك	-731
▁دا	-732
▁Can	-733
من	-734
▁tw	-735
▁bus	-736
▁انت	-737
تاج	-738
ving	-739
▁Let	-740
▁يكن	-741
▁doesn	-742
▁دي	-743
▁talk	-744
▁wait	-745
ag	-746
cc	-747
رق	-748
▁بي	-749
▁بعض	-750
▁يوم	-751
oy	-752
ther	-753
▁eat	-754
مع	-755
▁if	-756
▁لو	-757
ning	-758
اه	-759
ّل	-760
▁به	-761
▁could	-762
وف	-763
omet	-764
▁play	-765
itt	-766
▁en	-767
▁جي	-768
▁فض	-769
▁school	-770
طر	-771
▁ذهب	-772
انية	-773
▁الغ	-774
▁really	-775
▁ض	-776
▁جمي	-777
▁must	-778
رض	-779
ade	-780
uch	-781
▁di	-782
▁تأ	-783
▁قد	-784
وس	-785
ia	-786
وك	-787
▁سا	-788
lim	-789
▁bu	-790
▁sm	-791
▁بش	-792
ried	-793
▁أنه	-794
▁إنها	-795
ّس	-796
self	-797
اً	-798
urn	-799
▁مح	-800
reat	-801
▁يجب	-802
▁much	-803
▁into	-804
▁take	-805
ict	-806
ft	-807
own	-808
▁dr	-809
▁told	-810
hild	-811
▁lot	-812
▁many	-813
▁year	-814
بت	-815
نج	-816
ure	-817
▁با	-818
▁الو	-819
▁thing	-820
▁happen	-821
ies	-822
ount	-823
ress	-824
▁فضلك	-825
▁الكثير	-826
▁K	-827
الة	-828
▁Please	-829
تّ	-830
بدو	-831
▁im	-832
ence	-833
▁الر	-834
▁قبل	-835
orrow	-836
▁Are	-837
▁Mus	-838
▁app	-839
خت	-840
يارة	-841
▁pre	-842
ab	-843
طف	-844
iss	-845
▁only	-846
▁again	-847
▁ad	-848
▁له	-849
▁Who	-850
▁when	-851
رات	-852
مال	-853
ساعد	-854
▁lear	-855
خل	-856
ديد	-857
▁rem	-858
▁last	-859
▁said	-860
▁البي	-861
▁somet	-862
▁Muslim	-863
▁المنزل	-864
▁التي	-865
ci	-866
▁ذا	-867
▁made	-868
▁child	-869
▁father	-870
are	-871
لاب	-872
رد	-873
▁sw	-874
▁bel	-875
▁مدر	-876
▁chan	-877
مس	-878
use	-879
iz	-880
ngl	-881
راء	-882
▁po	-883
▁أس	-884
olice	-885
▁sent	-886
au	-887
rab	-888
▁أش	-889
▁أُ	-890
ways	-891
▁Engl	-892
▁القا	-893
ئي	-894
mer	-895
تها	-896
▁won	-897
▁قال	-898
▁them	-899
▁they	-900
▁المال	-901
..	-902
▁لأ	-903
ough	-904
غة	-905
rain	-906
▁شيئ	-907
▁يريد	-908
ue	-909
▁room	-910
▁start	-911
▁other	-912
wn	-913
▁حياة	-914
▁friends	-915
لف	-916
▁لت	-917
▁down	-918
▁always	-919
ظن	-920
ose	-921
▁فعل	-922
▁لكن	-923
كت	-924
وقت	-925
▁بل	-926
▁two	-927
▁الث	-928
▁تريد	-929
ثي	-930
▁1	-931
▁نا	-932
angu	-933
▁how	-934
▁live	-935
▁took	-936
enn	-937
ise	-938
▁something	-939
act	-940
▁English	-941
الي	-942
▁If	-943
▁old	-944
▁Arab	-945
ans	-946
▁long	-947
رو	-948
كم	-949
▁،	-950
fore	-951
▁sho	-952
▁بدأ	-953
▁نفس	-954
ty	-955
شي	-956
ment	-957
▁sle	-958
▁came	-959
▁langu	-960
▁لماذا	-961
بّ	-962
ctor	-963
▁left	-964
▁أكثر	-965
قى	-966
▁كلّ	-967
▁نحن	-968
▁المس	-969
▁before	-970
00	-971
دم	-972
عم	-973
تم	-974
ell	-975
▁أخبر	-976
▁النا	-977
▁سم	-978
▁أعرف	-979
▁asked	-980
▁كم	-981
▁غير	-982
▁يست	-983
▁When	-984
▁their	-985
▁الوقت	-986
▁way	-987
▁فقط	-988
دى	-989
ect	-990
▁شخص	-991
▁where	-992
كي	-993
ريق	-994
▁exp	-995
▁letter	-996
ّه	-997
الم	-998
ليلى	-999
▁Did	-1000
▁dis	-1001
▁sha	-1002
▁underst	-1003
تح	-1004
فل	-1005
▁R	-1006
kes	-1007
▁op	-1008
▁بأن	-1009
كا	-1010
ger	-1011
تقد	-1012
يادة	-1013
▁door	-1014
▁make	-1015
▁still	-1016
شف	-1017
ated	-1018
port	-1019
▁يحبّ	-1020
اص	-1021
اض	-1022
وّ	-1023
▁يح	-1024
▁Al	-1025
▁No	-1026
▁St	-1027
▁ها	-1028
apan	-1029
▁isn	-1030
▁wom	-1031
▁صدي	-1032
غا	-1033
ail	-1034
ich	-1035
ولة	-1036
▁تخ	-1037
▁cat	-1038
▁res	-1039
▁لست	-1040
▁السا	-1041
▁Every	-1042
▁Japan	-1043
▁better	-1044
▁بن	-1045
▁تن	-1046
ance	-1047
▁mar	-1048
▁دائ	-1049
ester	-1050
▁over	-1051
▁belie	-1052
شر	-1053
ِي	-1054
▁عم	-1055
able	-1056
irst	-1057
▁att	-1058
erber	-1059
▁anything	-1060
ult	-1061
راً	-1062
رية	-1063
فضل	-1064
ليز	-1065
▁بأ	-1066
▁حت	-1067
▁قط	-1068
ach	-1069
▁bl	-1070
▁مج	-1071
▁إذا	-1072
▁today	-1073
▁Arabic	-1074
be	-1075
ّم	-1076
ions	-1077
ital	-1078
▁har	-1079
▁إلي	-1080
▁after	-1081
▁count	-1082
▁likes	-1083
▁mother	-1084
▁please	-1085
▁المدرسة	-1086
ew	-1087
هو	-1088
▁مث	-1089
▁أبدا	-1090
▁مس	-1091
▁وق	-1092
▁May	-1093
▁بين	-1094
▁understand	-1095
مازي	-1096
▁learn	-1097
▁عندما	-1098
esterday	-1099
حق	-1100
ost	-1101
رفة	-1102
▁tom	-1103
▁تحب	-1104
▁مست	-1105
ليزية	-1106
▁class	-1107
ضر	-1108
فع	-1109
igh	-1110
قاء	-1111
لاث	-1112
▁Ch	-1113
ause	-1114
▁حياته	-1115
▁police	-1116
ace	-1117
▁sc	-1118
▁سن	-1119
▁gir	-1120
▁comm	-1121
▁happy	-1122
قل	-1123
ory	-1124
▁الد	-1125
▁name	-1126
▁الكتاب	-1127
رح	-1128
ربي	-1129
ياة	-1130
يات	-1131
▁يُ	-1132
▁كثي	-1133
▁منزل	-1134
▁يكون	-1135
▁night	-1136
▁متى	-1137
▁stay	-1138
▁tomorrow	-1139
ساء	-1140
ياب	-1141
▁des	-1142
▁hand	-1143
ضا	-1144
هاب	-1145
▁aw	-1146
▁fl	-1147
▁بم	-1148
▁التّ	-1149
ورة	-1150
▁دع	-1151
body	-1152
▁acc	-1153
▁أبي	-1154
ّ.	-1155
▁يش	-1156
▁كبي	-1157
▁cont	-1158
▁well	-1159
▁sleep	-1160
▁doctor	-1161
ix	-1162
▁بك	-1163
ited	-1164
سالة	-1165
▁أرا	-1166
▁السّ	-1167
▁miss	-1168
▁مكان	-1169
▁yesterday	-1170
بن	-1171
هُ	-1172
َا	-1173
درس	-1174
▁fin	-1175
▁part	-1176
▁three	-1177
ted	-1178
ذكر	-1179
رين	-1180
▁خط	-1181
▁يأ	-1182
blem	-1183
pped	-1184
▁حتى	-1185
▁give	-1186
▁world	-1187
▁problem	-1188
جه	-1189
▁2	-1190
hes	-1191
ious	-1192
ired	-1193
▁اعت	-1194
▁يعيش	-1195
ourist	-1196
▁يم	-1197
تكلم	-1198
قيقة	-1199
▁boy	-1200
▁inv	-1201
▁الدّ	-1202
▁اللي	-1203
▁المست	-1204
ts	-1205
فر	-1206
ese	-1207
osp	-1208
▁ph	-1209
▁wh	-1210
▁أخرى	-1211
▁بالأ	-1212
▁started	-1213
لام	-1214
لعب	-1215
▁لح	-1216
▁نظ	-1217
▁saw	-1218
aught	-1219
▁kill	-1220
▁الإنج	-1221
▁أستطيع	-1222
▁language	-1223
ds	-1224
ek	-1225
ok	-1226
وان	-1227
ting	-1228
ّرطة	-1229
ember	-1230
▁hosp	-1231
▁lost	-1232
▁found	-1233
▁quest	-1234
▁البيت	-1235
▁hospital	-1236
صد	-1237
▁In	-1238
▁dri	-1239
مازيغ	-1240
▁feel	-1241
▁find	-1242
▁الأمر	-1243
▁دائما	-1244
si	-1245
جت	-1246
▁own	-1247
▁meet	-1248
▁عليه	-1249
▁واحد	-1250
▁tourist	-1251
اع	-1252
صر	-1253
ife	-1254
▁gr	-1255
▁الباب	-1256
▁يمكنك	-1257
▁Berber	-1258
كتب	-1259
وسي	-1260
ولا	-1261
▁pa	-1262
▁met	-1263
▁years	-1264
▁الياب	-1265
▁another	-1266
▁gu	-1267
▁أر	-1268
▁buy	-1269
▁girl	-1270
▁يبدو	-1271
▁first	-1272
aut	-1273
ged	-1274
gry	-1275
▁dec	-1276
▁تست	-1277
▁للم	-1278
isten	-1279
▁even	-1280
▁gave	-1281
▁تعرف	-1282
▁الحياة	-1283
▁brother	-1284
خذ	-1285
enc	-1286
ign	-1287
▁شك	-1288
inic	-1289
pect	-1290
▁طلب	-1291
▁hard	-1292
▁wasn	-1293
مازيغية	-1294
▁clinic	-1295
▁happened	-1296
xt	-1297
به	-1298
ath	-1299
ire	-1300
يار	-1301
ّاد	-1302
▁حد	-1303
ديدة	-1304
▁may	-1305
▁per	-1306
▁لدى	-1307
▁يعرف	-1308
ai	-1309
جن	-1310
جي	-1311
meric	-1312
▁تكون	-1313
▁drink	-1314
▁heard	-1315
▁watch	-1316
▁things	-1317
▁student	-1318
▁dif	-1319
▁ear	-1320
▁آخر	-1321
▁study	-1322
▁water	-1323
▁called	-1324
عدة	-1325
هرة	-1326
يني	-1327
iful	-1328
▁job	-1329
▁week	-1330
▁beaut	-1331
▁النّا	-1332
سن	-1333
شفى	-1334
▁ام	-1335
▁تف	-1336
▁mon	-1337
▁open	-1338
▁plan	-1339
▁rest	-1340
▁believe	-1341
▁remember	-1342
▁U	-1343
▁beg	-1344
▁why	-1345
▁العمل	-1346
▁لليلى	-1347
▁Americ	-1348
▁All	-1349
▁end	-1350
▁أنك	-1351
▁حقا	-1352
▁fami	-1353
▁pers	-1354
▁الرّ	-1355
▁looking	-1356
ند	-1357
بيب	-1358
▁ho	-1359
▁تش	-1360
▁سب	-1361
ered	-1362
▁key	-1363
▁try	-1364
▁hear	-1365
▁أفضل	-1366
▁الأم	-1367
▁شيئا	-1368
▁spend	-1369
gy	-1370
sw	-1371
▁تُ	-1372
▁ول	-1373
▁str	-1374
▁قام	-1375
ident	-1376
rench	-1377
▁French	-1378
▁because	-1379
حك	-1380
ful	-1381
داً	-1382
▁قا	-1383
▁Jam	-1384
▁hun	-1385
▁leave	-1386
▁العالم	-1387
تُ	-1388
ضع	-1389
هي	-1390
غير	-1391
▁ات	-1392
▁تس	-1393
▁تص	-1394
▁bed	-1395
▁cle	-1396
▁turn	-1397
▁تعلم	-1398
▁beautiful	-1399
▁الإنجليزية	-1400
َل	-1401
وجد	-1402
▁جد	-1403
▁حق	-1404
طفال	-1405
▁ask	-1406
▁ترك	-1407
▁وصل	-1408
ennad	-1409
▁كثيرا	-1410
▁Mennad	-1411
فق	-1412
سبب	-1413
علم	-1414
▁حي	-1415
rest	-1416
شتري	-1417
▁وقت	-1418
▁Jamal	-1419
az	-1420
ئة	-1421
هل	-1422
fic	-1423
orm	-1424
ماع	-1425
وات	-1426
▁بح	-1427
▁يد	-1428
▁منذ	-1429
▁يعلم	-1430
▁woman	-1431
▁العربي	-1432
▁thought	-1433
أك	-1434
طل	-1435
ark	-1436
ock	-1437
orn	-1438
ميع	-1439
▁fa	-1440
▁بت	-1441
نتظر	-1442
anger	-1443
ittle	-1444
▁Have	-1445
▁الصّ	-1446
▁ثلاث	-1447
▁كذلك	-1448
طا	-1449
▁ذ	-1450
ond	-1451
بغي	-1452
▁إي	-1453
▁اسم	-1454
▁رائ	-1455
▁علا	-1456
▁أعلم	-1457
▁doing	-1458
▁الناس	-1459
uck	-1460
▁fo	-1461
▁رج	-1462
▁big	-1463
▁tra	-1464
▁عمل	-1465
▁answ	-1466
▁swim	-1467
▁المش	-1468
▁جمال	-1469
▁ليست	-1470
▁little	-1471
▁everything	-1472
بع	-1473
any	-1474
وني	-1475
▁فر	-1476
imes	-1477
▁mor	-1478
▁rel	-1479
▁زوج	-1480
▁لأن	-1481
▁away	-1482
▁best	-1483
▁أنّه	-1484
▁liked	-1485
▁month	-1486
▁الذهاب	-1487
".	-1488
co	-1489
دت	-1490
مّ	-1491
▁cr	-1492
ared	-1493
hank	-1494
سبوع	-1495
ناول	-1496
▁che	-1497
▁حال	-1498
▁Your	-1499
▁rain	-1500
▁person	-1501
▁country	-1502
▁المدرّس	-1503
ُل	-1504
باح	-1505
عمل	-1506
▁مر	-1507
read	-1508
▁mus	-1509
▁use	-1510
▁عام	-1511
▁wind	-1512
▁ذهبت	-1513
▁danger	-1514
نّ	-1515
رأة	-1516
▁sur	-1517
▁vis	-1518
▁الز	-1519
▁بسر	-1520
▁تنس	-1521
▁those	-1522
▁family	-1523
▁listen	-1524
وز	-1525
سبة	-1526
ليس	-1527
▁أغ	-1528
▁يخ	-1529
▁يس	-1530
دينة	-1531
▁cha	-1532
▁put	-1533
▁hour	-1534
▁عندي	-1535
▁السيا	-1536
▁منّاد	-1537
▁العيادة	-1538
عام	-1539
هتم	-1540
وال	-1541
▁يص	-1542
سلام	-1543
▁hot	-1544
▁إلا	-1545
▁مرة	-1546
▁show	-1547
▁ينبغي	-1548
▁الساعة	-1549
▁morning	-1550
▁الشّرطة	-1551
ied	-1552
les	-1553
ork	-1554
ull	-1555
وقف	-1556
airo	-1557
▁God	-1558
▁الض	-1559
▁انا	-1560
▁بما	-1561
▁coll	-1562
▁next	-1563
▁pict	-1564
▁Cairo	-1565
▁books	-1566
▁wants	-1567
تل	-1568
ّف	-1569
led	-1570
باً	-1571
لّم	-1572
▁war	-1573
▁أخي	-1574
▁فيه	-1575
▁care	-1576
▁late	-1577
▁الان	-1578
▁المح	-1579
▁صديق	-1580
▁knows	-1581
▁البار	-1582
▁يستطيع	-1583
▁children	-1584
▁الأمازيغية	-1585
▁تب	-1586
▁pla	-1587
▁ألا	-1588
▁مال	-1589
aking	-1590
ister	-1591
▁القط	-1592
▁Thank	-1593
▁loves	-1594
▁music	-1595
▁بسرعة	-1596
▁waiting	-1597
eb	-1598
ug	-1599
ced	-1600
زال	-1601
قدر	-1602
لاً	-1603
▁gl	-1604
▁أَ	-1605
akes	-1606
▁hur	-1607
▁اخت	-1608
▁arri	-1609
▁ever	-1610
▁used	-1611
▁حاول	-1612
▁علينا	-1613
▁sister	-1614
ank	-1615
لاد	-1616
▁let	-1617
▁أخذ	-1618
▁seen	-1619
▁تقول	-1620
▁alone	-1621
▁around	-1622
▁Muslims	-1623
صة	-1624
صف	-1625
ffe	-1626
دية	-1627
كلة	-1628
هما	-1629
▁أل	-1630
ream	-1631
▁hat	-1632
▁six	-1633
▁غدا	-1634
▁واح	-1635
▁same	-1636
▁الفر	-1637
▁window	-1638
▁الجميع	-1639
▁يمكنني	-1640
▁القاهرة	-1641
دخ	-1642
فذ	-1643
ima	-1644
كره	-1645
لمة	-1646
ولي	-1647
ياء	-1648
▁On	-1649
▁إس	-1650
▁لس	-1651
▁أست	-1652
▁أصد	-1653
▁طوي	-1654
▁بذلك	-1655
▁nothing	-1656
uth	-1657
ائر	-1658
عيد	-1659
▁run	-1660
▁سوف	-1661
sible	-1662
▁الأخ	-1663
▁الطّ	-1664
جر	-1665
بات	-1666
تني	-1667
لاق	-1668
▁son	-1669
▁ذاك	-1670
▁لديك	-1671
▁lives	-1672
▁without	-1673
صي	-1674
ten	-1675
فاز	-1676
▁sure	-1677
وض	-1678
cle	-1679
rew	-1680
▁TV	-1681
▁أعط	-1682
▁رأي	-1683
ished	-1684
▁جدّا	-1685
▁looks	-1686
▁these	-1687
▁tried	-1688
▁سيارة	-1689
تَ	-1690
وة	-1691
ّى	-1692
▁؟	-1693
سمع	-1694
▁Be	-1695
▁وأ	-1696
ised	-1697
▁اتّ	-1698
وسيقى	-1699
▁أليس	-1700
▁الرج	-1701
▁النّ	-1702
▁لديه	-1703
▁lived	-1704
▁أعتقد	-1705
▁أيمكن	-1706
▁البارحة	-1707
▁المستشفى	-1708
aby	-1709
ظهر	-1710
▁رب	-1711
▁قل	-1712
ever	-1713
▁bir	-1714
▁أظن	-1715
▁حدث	-1716
▁كتب	-1717
▁معي	-1718
▁Come	-1719
▁mist	-1720
▁question	-1721
اي	-1722
طن	-1723
نع	-1724
ّن	-1725
ato	-1726
كرة	-1727
لكن	-1728
▁ير	-1729
▁صحي	-1730
▁مثل	-1731
▁معك	-1732
▁busy	-1733
▁تذهب	-1734
▁يوجد	-1735
▁phone	-1736
▁tired	-1737
▁trans	-1738
▁wrong	-1739
▁coming	-1740
رس	-1741
سط	-1742
lic	-1743
دين	-1744
وية	-1745
▁أج	-1746
▁عد	-1747
ريقة	-1748
▁Nob	-1749
▁bot	-1750
▁eas	-1751
▁med	-1752
▁sec	-1753
▁أجل	-1754
▁died	-1755
▁pill	-1756
▁بسبب	-1757
▁train	-1758
▁رسالة	-1759
▁became	-1760
▁المسلم	-1761
▁station	-1762
زم	-1763
فض	-1764
ِل	-1765
ens	-1766
vor	-1767
ارج	-1768
▁Un	-1769
▁ac	-1770
▁تك	-1771
hile	-1772
side	-1773
▁Isl	-1774
▁ide	-1775
▁min	-1776
ساعدة	-1777
▁forg	-1778
▁seem	-1779
▁أمري	-1780
▁رأيت	-1781
▁Nobody	-1782
▁married	-1783
▁talking	-1784
▁بإمكانك	-1785
▁Japanese	-1786
...	-1787
ord	-1788
دير	-1789
used	-1790
vers	-1791
▁act	-1792
▁بحا	-1793
▁لها	-1794
▁وجد	-1795
▁cold	-1796
▁knew	-1797
▁soon	-1798
▁أنتَ	-1799
▁تفعل	-1800
▁كتاب	-1801
▁great	-1802
▁bought	-1803
▁commun	-1804
ub	-1805
انا	-1806
تاة	-1807
ناء	-1808
▁vo	-1809
نسية	-1810
▁fun	-1811
▁تكن	-1812
▁الجز	-1813
▁اللغة	-1814
▁بحاجة	-1815
▁comput	-1816
▁enough	-1817
cl	-1818
بك	-1819
ote	-1820
ادث	-1821
عيش	-1822
▁19	-1823
▁خل	-1824
▁Dan	-1825
▁His	-1826
▁أيّ	-1827
▁أراد	-1828
▁الله	-1829
▁تستطيع	-1830
▁himself	-1831
ars	-1832
بحث	-1833
ركة	-1834
▁ey	-1835
▁تد	-1836
حاول	-1837
▁imp	-1838
▁fast	-1839
▁pret	-1840
▁أصبح	-1841
▁بشكل	-1842
▁Islam	-1843
َم	-1844
ِ.	-1845
app	-1846
bor	-1847
erm	-1848
oin	-1849
ute	-1850
▁أط	-1851
cept	-1852
orry	-1853
امعة	-1854
▁مشغ	-1855
▁born	-1856
▁head	-1857
▁walk	-1858
▁Alger	-1859
▁neigh	-1860
▁جميلة	-1861
وح	-1862
anc	-1863
اما	-1864
اهد	-1865
بار	-1866
ليل	-1867
ملة	-1868
واء	-1869
يفة	-1870
▁An	-1871
▁تج	-1872
▁در	-1873
▁هم	-1874
gypt	-1875
▁mat	-1876
▁اله	-1877
▁فقد	-1878
▁مات	-1879
▁معا	-1880
ating	-1881
▁dogs	-1882
▁pain	-1883
▁such	-1884
▁المت	-1885
▁truth	-1886
▁مساعد	-1887
▁answer	-1888
▁picture	-1889
▁العربيّة	-1890
فك	-1891
een	-1892
vel	-1893
عرف	-1894
▁مي	-1895
▁يج	-1896
غاية	-1897
▁pos	-1898
▁أمي	-1899
▁تحت	-1900
▁غرف	-1901
feren	-1902
▁Dima	-1903
▁food	-1904
▁then	-1905
▁الأش	-1906
▁الما	-1907
▁تبدو	-1908
▁ولكن	-1909
ations	-1910
▁Egypt	-1911
▁deser	-1912
▁ينتظر	-1913
▁للغاية	-1914
▁السيارة	-1915
ئل	-1916
ظة	-1917
eba	-1918
داء	-1919
ates	-1920
▁سعي	-1921
▁أذهب	-1922
▁الأو	-1923
▁جميع	-1924
atoeba	-1925
▁hours	-1926
▁الإسلام	-1927
▁Everyone	-1928
شا	-1929
طئ	-1930
تنا	-1931
ونا	-1932
▁يك	-1933
▁bro	-1934
▁ser	-1935
▁sto	-1936
▁إنّ	-1937
▁شعر	-1938
▁للأ	-1939
erest	-1940
iness	-1941
▁clot	-1942
▁done	-1943
▁hair	-1944
▁kept	-1945
▁medic	-1946
▁الماء	-1947
▁change	-1948
▁اليابان	-1949
▁neighbor	-1950
كَ	-1951
فلة	-1952
▁أد	-1953
▁مُ	-1954
▁يب	-1955
ject	-1956
▁cho	-1957
▁درا	-1958
▁رجل	-1959
▁keep	-1960
▁stop	-1961
▁الحي	-1962
▁المط	-1963
▁ديما	-1964
▁كثير	-1965
▁import	-1966
▁transl	-1967
▁Tatoeba	-1968
▁sentence	-1969
▁dangerous	-1970
aw	-1971
no	-1972
وى	-1973
شرة	-1974
صول	-1975
▁بس	-1976
▁بص	-1977
▁نق	-1978
rist	-1979
▁dep	-1980
▁far	-1981
▁هات	-1982
▁Take	-1983
▁kind	-1984
▁mind	-1985
▁wife	-1986
▁جداً	-1987
▁يعمل	-1988
▁needs	-1989
▁party	-1990
▁while	-1991
▁الأفضل	-1992
▁America	-1993
▁tourists	-1994
gn	-1995
ip	-1996
صا	-1997
غل	-1998
يب	-1999
بدأ	-2000
عات	-2001
هات	-2002
ينة	-2003
▁فل	-2004
▁مق	-2005
▁Our	-2006
▁mom	-2007
▁num	-2008
▁أعد	-2009
▁اشت	-2010
▁حصل	-2011
▁عشر	-2012
▁معه	-2013
▁hope	-2014
▁most	-2015
▁البل	-2016
▁تعمل	-2017
▁مدرّ	-2018
▁يقول	-2019
ention	-2020
▁clean	-2021
▁coffe	-2022
▁small	-2023
▁جديدة	-2024
▁مدرّس	-2025
▁daught	-2026
▁looked	-2027
إن	-2028
حم	-2029
ont	-2030
رّف	-2031
زيد	-2032
▁مخ	-2033
work	-2034
▁بوس	-2035
▁علم	-2036
▁قري	-2037
▁نسي	-2038
ences	-2039
rents	-2040
▁mean	-2041
▁true	-2042
▁word	-2043
▁أكبر	-2044
▁طوال	-2045
▁نفسه	-2046
▁drive	-2047
▁glass	-2048
▁الكلب	-2049
▁Christ	-2050
▁السياح	-2051
▁الحقيقة	-2052
ff	-2053
ib	-2054
سف	-2055
ّع	-2056
oke	-2057
تهم	-2058
▁To	-2059
▁ثم	-2060
▁حل	-2061
llow	-2062
باحة	-2063
▁adv	-2064
▁pay	-2065
▁rep	-2066
▁thr	-2067
▁yet	-2068
▁حول	-2069
▁عاد	-2070
ennis	-2071
gether	-2072
▁being	-2073
▁place	-2074
▁young	-2075
▁حياتي	-2076
▁coffee	-2077
▁couldn	-2078
▁tennis	-2079
▁computer	-2080
َر	-2081
air	-2082
ove	-2083
رير	-2084
▁بز	-2085
▁غا	-2086
ched	-2087
form	-2088
▁And	-2089
▁سعيد	-2090
▁عادة	-2091
▁loved	-2092
▁visit	-2093
▁arrived	-2094
▁interest	-2095
▁together	-2096
فظ	-2097
مك	-2098
let	-2099
ضاء	-2100
لات	-2101
▁Fr	-2102
▁sk	-2103
▁بق	-2104
cent	-2105
ward	-2106
فاتي	-2107
لابس	-2108
ويبا	-2109
ّارة	-2110
▁ent	-2111
▁ret	-2112
▁إنك	-2113
▁طال	-2114
▁مني	-2115
▁Stop	-2116
▁each	-2117
▁الخط	-2118
▁الفي	-2119
▁Dania	-2120
▁These	-2121
▁angry	-2122
▁الأرض	-2123
▁العديد	-2124
▁working	-2125
زا	-2126
َت	-2127
als	-2128
aza	-2129
رطة	-2130
غات	-2131
قتل	-2132
مات	-2133
▁اب	-2134
▁بط	-2135
ided	-2136
▁الى	-2137
▁ولا	-2138
▁Gaza	-2139
▁sing	-2140
▁أنها	-2141
▁often	-2142
▁diffic	-2143
▁number	-2144
▁playing	-2145
▁through	-2146
▁accident	-2147
li	-2148
رع	-2149
زف	-2150
وه	-2151
َق	-2152
ِم	-2153
زّة	-2154
▁As	-2155
▁em	-2156
▁لط	-2157
▁نت	-2158
ages	-2159
cked	-2160
ince	-2161
ness	-2162
osed	-2163
raid	-2164
▁mov	-2165
▁unt	-2166
▁ذاه	-2167
▁كلب	-2168
▁واش	-2169
جتماع	-2170
▁days	-2171
▁face	-2172
▁prom	-2173
▁العش	-2174
▁بالم	-2175
▁stand	-2176
▁voice	-2177
▁اتّصل	-2178
▁واحدة	-2179
ational	-2180
▁afraid	-2181
▁living	-2182
▁الماضي	-2183
▁community	-2184
0.	-2185
َي	-2186
ily	-2187
oud	-2188
per	-2189
فذة	-2190
▁ch	-2191
▁sn	-2192
▁أه	-2193
▁تر	-2194
▁ده	-2195
ized	-2196
▁For	-2197
▁bad	-2198
▁red	-2199
▁أسر	-2200
▁أني	-2201
▁بار	-2202
▁سيا	-2203
▁طبي	-2204
▁كتا	-2205
oston	-2206
▁Chin	-2207
▁Does	-2208
▁cann	-2209
▁supp	-2210
▁كبير	-2211
▁يذهب	-2212
▁أحتاج	-2213
▁الرجل	-2214
▁كبيرة	-2215
▁Boston	-2216
▁turned	-2217
▁الليلة	-2218
▁parents	-2219
▁important	-2220
so	-2221
ضة	-2222
فة	-2223
ّب	-2224
▁bo	-2225
alth	-2226
▁Not	-2227
▁add	-2228
▁hum	-2229
▁كما	-2230
▁منز	-2231
alked	-2232
ready	-2233
ually	-2234
▁idea	-2235
▁الري	-2236
▁بالس	-2237
▁بنفس	-2238
▁سمعت	-2239
▁عليّ	-2240
▁متأك	-2241
▁Maybe	-2242
▁colle	-2243
▁story	-2244
▁words	-2245
▁المتح	-2246
▁تتحدث	-2247
▁cannot	-2248
▁already	-2249
▁الموسيقى	-2250
Tu	-2251
نى	-2252
inn	-2253
joy	-2254
med	-2255
ors	-2256
زوج	-2257
وقع	-2258
▁مغ	-2259
ater	-2260
reet	-2261
room	-2262
رائي	-2263
وتوب	-2264
▁cry	-2265
▁kid	-2266
▁عمر	-2267
▁نها	-2268
▁aren	-2269
▁real	-2270
▁أنتِ	-2271
▁التل	-2272
▁بالن	-2273
▁غزّة	-2274
▁YouTu	-2275
▁relig	-2276
▁انتظر	-2277
▁killed	-2278
▁الغرفة	-2279
▁students	-2280
▁الفرنسية	-2281
ah	-2282
خي	-2283
ِن	-2284
ild	-2285
que	-2286
ؤال	-2287
مان	-2288
نية	-2289
▁ra	-2290
▁يف	-2291
hood	-2292
▁But	-2293
▁ind	-2294
▁mos	-2295
▁ten	-2296
▁مصر	-2297
▁منك	-2298
▁Will	-2299
▁city	-2300
▁free	-2301
▁high	-2302
▁pass	-2303
▁الأس	-2304
▁تأتي	-2305
▁سيار	-2306
▁فيها	-2307
▁يحدث	-2308
▁hands	-2309
▁treat	-2310
▁until	-2311
▁لدينا	-2312
▁والدي	-2313
▁follow	-2314
▁أمريكا	-2315
▁تتويبا	-2316
▁clothes	-2317
▁college	-2318
▁daughter	-2319
▁difficult	-2320
حر	-2321
دع	-2322
ذي	-2323
elt	-2324
olo	-2325
ple	-2326
امة	-2327
حدّ	-2328
حيد	-2329
عبة	-2330
▁At	-2331
ason	-2332
fect	-2333
hind	-2334
lain	-2335
▁One	-2336
▁ابن	-2337
▁بلد	-2338
▁بها	-2339
▁خرج	-2340
▁صاد	-2341
▁قدّ	-2342
▁وجه	-2343
icked	-2344
ouble	-2345
▁baby	-2346
▁eyes	-2347
▁near	-2348
▁إنهُ	-2349
▁الوا	-2350
▁inter	-2351
▁write	-2352
▁الاست	-2353
▁behind	-2354
▁office	-2355
▁speaks	-2356
▁Algeria	-2357
▁changed	-2358
كة	-2359
يق	-2360
َن	-2361
▁-	-2362
adi	-2363
ann	-2364
امل	-2365
▁Wh	-2366
▁its	-2367
▁reg	-2368
▁أكل	-2369
▁سنة	-2370
▁قاد	-2371
▁منه	-2372
where	-2373
▁easy	-2374
▁once	-2375
▁pres	-2376
▁tall	-2377
▁writ	-2378
▁أيضا	-2379
▁الحق	-2380
▁جديد	-2381
iction	-2382
onight	-2383
▁dream	-2384
▁haven	-2385
▁ready	-2386
▁sorry	-2387
▁table	-2388
▁which	-2389
▁worry	-2390
▁سيكون	-2391
▁hungry	-2392
▁trying	-2393
▁worked	-2394
▁YouTube	-2395
▁الأسبوع	-2396
▁finished	-2397
ضب	-2398
حقّ	-2399
قدم	-2400
هوة	-2401
ودة	-2402
ّات	-2403
▁بج	-2404
▁كا	-2405
less	-2406
more	-2407
قيام	-2408
▁bre	-2409
▁أمر	-2410
▁غاض	-2411
▁كال	-2412
▁لكل	-2413
▁ملي	-2414
▁Give	-2415
▁Good	-2416
▁conf	-2417
▁cook	-2418
▁heart	-2419
▁times	-2420
▁someone	-2421
pr	-2422
تو	-2423
يو	-2424
aur	-2425
ديو	-2426
زوّ	-2427
سبح	-2428
قائ	-2429
▁بخ	-2430
▁كن	-2431
افلة	-2432
▁Pal	-2433
▁air	-2434
▁أتى	-2435
▁طوم	-2436
▁عنه	-2437
▁قلت	-2438
▁قلي	-2439
▁كرة	-2440
▁لغة	-2441
▁مري	-2442
ative	-2443
oking	-2444
فاتيح	-2445
▁Isra	-2446
▁able	-2447
▁fore	-2448
▁nice	-2449
▁أفعل	-2450
▁الرا	-2451
▁بدون	-2452
▁جيدا	-2453
▁صحيح	-2454
▁غادر	-2455
▁كانا	-2456
▁enjoy	-2457
▁wrote	-2458
▁لسامي	-2459
▁Palest	-2460
▁anymore	-2461
▁getting	-2462
▁meeting	-2463
▁tonight	-2464
▁الجزائر	-2465
▁Christian	-2466
▁sentences	-2467
اك	-2468
ُم	-2469
cer	-2470
راق	-2471
نين	-2472
▁أث	-2473
▁مم	-2474
الية	-2475
▁bet	-2476
▁ext	-2477
▁fig	-2478
▁أرد	-2479
▁ألم	-2480
▁بقي	-2481
▁جيد	-2482
▁مهم	-2483
▁Germ	-2484
▁fell	-2485
▁tick	-2486
▁بدأت	-2487
▁بهذا	-2488
▁خلال	-2489
▁راني	-2490
▁ساعد	-2491
▁Could	-2492
▁death	-2493
▁noise	-2494
▁quick	-2495
▁sound	-2496
▁الذين	-2497
▁دانية	-2498
▁Israel	-2499
▁eating	-2500
▁return	-2501
▁المشكلة	-2502
▁differen	-2503
▁المسلمين	-2504
أل	-2505
جز	-2506
وء	-2507
ِب	-2508
ret	-2509
جرة	-2510
خرج	-2511
▁تو	-2512
▁شع	-2513
▁مؤ	-2514
▁مط	-2515
▁مو	-2516
cial	-2517
ming	-2518
owed	-2519
upid	-2520
راءة	-2521
ربية	-2522
ريّة	-2523
عادة	-2524
▁arg	-2525
▁few	-2526
▁lea	-2527
▁mem	-2528
▁set	-2529
▁حين	-2530
▁سمع	-2531
▁شرب	-2532
ision	-2533
▁tele	-2534
▁أرسل	-2535
▁أكون	-2536
▁الجو	-2537
▁تحدث	-2538
▁تقلق	-2539
▁غرفة	-2540
▁begin	-2541
▁might	-2542
▁moved	-2543
▁trust	-2544
▁women	-2545
▁تحتاج	-2546
▁ثلاثة	-2547
▁stupid	-2548
▁المدينة	-2549
!"	-2550
?"	-2551
؟"	-2552
تر	-2553
خد	-2554
سك	-2555
تاح	-2556
حتر	-2557
قال	-2558
ماء	-2559
ّين	-2560
▁Go	-2561
▁تل	-2562
ange	-2563
ular	-2564
سيحي	-2565
غادر	-2566
▁ref	-2567
▁ter	-2568
▁أكن	-2569
▁تلق	-2570
▁سبب	-2571
▁قتل	-2572
▁felt	-2573
▁mess	-2574
▁أقول	-2575
▁تعال	-2576
▁يملك	-2577
▁broke	-2578
▁dress	-2579
▁hotel	-2580
▁light	-2581
▁shall	-2582
▁الحدي	-2583
▁الكتب	-2584
▁myself	-2585
▁against	-2586
▁decided	-2587
▁reading	-2588
▁homework	-2589
▁yourself	-2590
br	-2591
ذر	-2592
ّد	-2593
bed	-2594
ely	-2595
ize	-2596
انو	-2597
صال	-2598
قبل	-2599
نسي	-2600
▁Sh	-2601
▁ap	-2602
▁el	-2603
▁gi	-2604
▁إخ	-2605
▁اي	-2606
▁تغ	-2607
▁شا	-2608
▁ظن	-2609
▁مف	-2610
ased	-2611
lack	-2612
▁ele	-2613
▁mil	-2614
▁توق	-2615
▁صغي	-2616
▁منا	-2617
▁cons	-2618
▁fire	-2619
▁full	-2620
▁pian	-2621
▁أفهم	-2622
▁بالإ	-2623
▁تعيش	-2624
▁جميل	-2625
▁سمحت	-2626
aurant	-2627
▁Which	-2628
▁Would	-2629
▁favor	-2630
▁لديها	-2631
▁يحتاج	-2632
▁mosque	-2633
▁waited	-2634
▁أخبرني	-2635
▁invited	-2636
▁trouble	-2637
▁learning	-2638
▁restaurant	-2639
هد	-2640
ّك	-2641
icy	-2642
ike	-2643
ued	-2644
حول	-2645
خاص	-2646
ذاء	-2647
رار	-2648
روح	-2649
ضرب	-2650
قات	-2651
ندق	-2652
واج	-2653
▁Jo	-2654
▁لإ	-2655
▁مص	-2656
▁يؤ	-2657
ists	-2658
rect	-2659
ries	-2660
utes	-2661
انيا	-2662
ريمة	-2663
▁pop	-2664
▁win	-2665
▁تاع	-2666
▁ترج	-2667
▁صوت	-2668
ately	-2669
inner	-2670
ition	-2671
▁Some	-2672
▁Tell	-2673
▁also	-2674
▁hurt	-2675
▁أشعر	-2676
▁تذكر	-2677
▁لهذا	-2678
▁ليلة	-2679
▁معنا	-2680
▁thank	-2681
▁تناول	-2682
▁expect	-2683
▁having	-2684
▁needed	-2685
▁complet	-2686
▁letters	-2687
▁التلفاز	-2688
▁اليوتوب	-2689
▁بإمكاني	-2690
du	-2691
طع	-2692
ظي	-2693
غب	-2694
َ.	-2695
ُن	-2696
▁3	-2697
ons	-2698
بيع	-2699
خدم	-2700
ريخ	-2701
ظار	-2702
قيق	-2703
لاء	-2704
وبة	-2705
يقظ	-2706
▁ev	-2707
▁اس	-2708
▁رك	-2709
▁نش	-2710
▁نف	-2711
reed	-2712
سائل	-2713
طلاق	-2714
▁ago	-2715
▁ran	-2716
▁sol	-2717
▁أود	-2718
▁فهم	-2719
ended	-2720
ivers	-2721
▁Here	-2722
▁dead	-2723
▁else	-2724
▁rich	-2725
▁town	-2726
▁أنني	-2727
▁بشأن	-2728
▁ربما	-2729
▁يزال	-2730
▁began	-2731
▁comes	-2732
▁يتكلم	-2733
▁anyone	-2734
▁become	-2735
▁others	-2736
▁reason	-2737
▁الطريق	-2738
▁business	-2739
▁watching	-2740
بخ	-2741
جم	-2742
غم	-2743
ump	-2744
باه	-2745
طلب	-2746
قرا	-2747
كّر	-2748
متع	-2749
▁So	-2750
▁sl	-2751
▁بر	-2752
▁قص	-2753
▁لغ	-2754
▁نص	-2755
▁وظ	-2756
ense	-2757
ison	-2758
unch	-2759
اضية	-2760
حدّث	-2761
خرين	-2762
▁Her	-2763
▁guy	-2764
▁hon	-2765
▁ill	-2766
▁lar	-2767
▁mur	-2768
▁sub	-2769
▁أنس	-2770
▁مفت	-2771
▁مما	-2772
▁four	-2773
▁mine	-2774
▁shop	-2775
▁البر	-2776
▁بالح	-2777
▁حقّا	-2778
▁black	-2779
▁break	-2780
▁front	-2781
▁shoes	-2782
▁بوسطن	-2783
▁Police	-2784
▁Thanks	-2785
▁dinner	-2786
▁wonder	-2787
▁مساعدتك	-2788
gg	-2789
ذب	-2790
ضى	-2791
يز	-2792
َد	-2793
hip	-2794
ئيس	-2795
لاح	-2796
ّاف	-2797
▁Br	-2798
▁Sp	-2799
▁قر	-2800
▁وج	-2801
most	-2802
اولة	-2803
▁تجا	-2804
▁فإن	-2805
▁char	-2806
▁cour	-2807
▁five	-2808
▁news	-2809
▁wall	-2810
▁بالق	-2811
▁ذاهب	-2812
▁ساعة	-2813
▁قابل	-2814
▁يأكل	-2815
▁التفا	-2816
▁الحرب	-2817
▁شكراً	-2818
▁matter	-2819
▁strong	-2820
▁الكحول	-2821
▁بالأمس	-2822
▁الأطفال	-2823
hn	-2824
ده	-2825
يء	-2826
َة	-2827
ِر	-2828
▁ظ	-2829
rip	-2830
اكل	-2831
▁اح	-2832
▁اخ	-2833
▁صف	-2834
▁مل	-2835
ived	-2836
رتدي	-2837
علّم	-2838
▁cap	-2839
▁dro	-2840
▁hit	-2841
▁hor	-2842
▁بكل	-2843
▁راك	-2844
ither	-2845
pping	-2846
▁John	-2847
▁tree	-2848
▁جيدة	-2849
▁قدّم	-2850
▁يلعب	-2851
▁apple	-2852
▁borrow	-2853
▁health	-2854
▁أيمكنك	-2855
▁الكلام	-2856
▁المزيد	-2857
▁النّار	-2858
▁الوحيد	-2859
▁brought	-2860
▁mistake	-2861
▁possible	-2862
▁languages	-2863
بق	-2864
زة	-2865
نب	-2866
يل	-2867
ّح	-2868
raz	-2869
ric	-2870
تّى	-2871
عود	-2872
لية	-2873
نان	-2874
▁ca	-2875
▁آن	-2876
▁شر	-2877
▁فت	-2878
▁فح	-2879
▁مز	-2880
ancy	-2881
ical	-2882
ower	-2883
▁Yes	-2884
▁bit	-2885
▁cou	-2886
▁pen	-2887
▁جون	-2888
▁سأل	-2889
▁لنا	-2890
▁مخت	-2891
ility	-2892
▁anim	-2893
▁both	-2894
▁card	-2895
▁goes	-2896
▁pick	-2897
▁prot	-2898
▁rece	-2899
▁wear	-2900
▁wish	-2901
▁الشّ	-2902
▁الكل	-2903
▁بالت	-2904
▁فتاة	-2905
▁close	-2906
▁piano	-2907
▁seems	-2908
▁since	-2909
▁surpr	-2910
▁works	-2911
▁الخطأ	-2912
▁الصين	-2913
▁يتحدث	-2914
▁accept	-2915
▁disapp	-2916
▁pretty	-2917
▁الخارج	-2918
▁القهوة	-2919
▁deserve	-2920
▁diction	-2921
▁perfect	-2922
▁quickly	-2923
▁الجامعة	-2924
▁favorite	-2925
▁questions	-2926
bo	-2927
000	-2928
fer	-2929
tle	-2930
سبق	-2931
ولد	-2932
وما	-2933
▁Se	-2934
▁حب	-2935
▁رق	-2936
▁صح	-2937
▁يَ	-2938
ator	-2939
▁adm	-2940
▁cam	-2941
▁cor	-2942
▁die	-2943
▁inc	-2944
▁law	-2945
▁sat	-2946
▁sun	-2947
▁خائ	-2948
▁راه	-2949
▁غري	-2950
▁كون	-2951
وانات	-2952
▁Look	-2953
▁hate	-2954
▁أسرع	-2955
▁بالك	-2956
▁تخبر	-2957
▁رجاء	-2958
▁واصل	-2959
▁early	-2960
▁spent	-2961
▁whole	-2962
▁الانت	-2963
▁امرأة	-2964
▁منزله	-2965
▁الشرطة	-2966
▁القيام	-2967
▁المحطة	-2968
▁المرأة	-2969
▁دائماً	-2970
▁company	-2971
iv	-2972
طّ	-2973
قب	-2974
هة	-2975
ile	-2976
ror	-2977
سية	-2978
▁ob	-2979
ably	-2980
aken	-2981
▁200	-2982
▁det	-2983
▁sit	-2984
▁sum	-2985
▁أرى	-2986
▁جائ	-2987
▁عائ	-2988
▁عمي	-2989
uring	-2990
رائيل	-2991
▁clim	-2992
▁conv	-2993
▁fact	-2994
▁resp	-2995
▁vide	-2996
▁الأن	-2997
▁المؤ	-2998
▁تأكل	-2999
▁حتّى	-3000
▁حقاً	-3001
▁لديّ	-3002
▁ممكن	-3003
▁وصلت	-3004
▁build	-3005
▁short	-3006
▁الشهر	-3007
▁اللّي	-3008
▁الهات	-3009
▁بليلى	-3010
▁تتكلم	-3011
▁سنوات	-3012
▁نهاية	-3013
▁contin	-3014
▁forgot	-3015
▁saying	-3016
▁wouldn	-3017
▁الكلاب	-3018
▁الحافلة	-3019
▁المتحدة	-3020
▁dictionary	-3021
مو	-3022
يك	-3023
ُر	-3024
ْر	-3025
ْل	-3026
انة	-3027
سوب	-3028
كما	-3029
واب	-3030
يام	-3031
ياً	-3032
ّار	-3033
▁Mr	-3034
▁اص	-3035
▁اِ	-3036
▁صا	-3037
▁وع	-3038
▁يغ	-3039
cket	-3040
coho	-3041
ings	-3042
ween	-3043
▁Far	-3044
▁ass	-3045
▁cut	-3046
▁lau	-3047
▁men	-3048
▁tea	-3049
▁whe	-3050
▁أول	-3051
▁دون	-3052
▁عيد	-3053
▁موا	-3054
▁هاد	-3055
▁أردت	-3056
▁أمام	-3057
▁المع	-3058
▁بأنه	-3059
▁صادق	-3060
▁عندك	-3061
▁فكرة	-3062
▁لازم	-3063
itting	-3064
▁birth	-3065
▁pregn	-3066
▁الخاص	-3067
▁المطر	-3068
▁بزّاف	-3069
▁months	-3070
▁أصدقاء	-3071
▁الجديد	-3072
▁الممكن	-3073
▁missing	-3074
▁protect	-3075
▁الطاولة	-3076
▁religion	-3077
▁neighborhood	-3078
جأ	-3079
زن	-3080
عض	-3081
عه	-3082
hem	-3083
lad	-3084
ned	-3085
الك	-3086
انب	-3087
بية	-3088
طلق	-3089
عار	-3090
واي	-3091
وبا	-3092
ّها	-3093
▁ار	-3094
▁خذ	-3095
▁عل	-3096
aper	-3097
ient	-3098
noon	-3099
اهدة	-3100
زوّج	-3101
ويّة	-3102
▁Ken	-3103
▁art	-3104
▁pol	-3105
▁rec	-3106
▁آسف	-3107
▁أصب	-3108
▁بدا	-3109
▁دخل	-3110
▁مبا	-3111
▁وضع	-3112
▁ولد	-3113
inian	-3114
تكلّم	-3115
▁Many	-3116
▁drug	-3117
▁gone	-3118
▁milk	-3119
▁rear	-3120
▁road	-3121
▁says	-3122
▁suit	-3123
▁tast	-3124
▁الأح	-3125
▁المر	-3126
▁المص	-3127
▁رائع	-3128
▁للتّ	-3129
▁ماشي	-3130
▁يفعل	-3131
▁يكره	-3132
▁makes	-3133
▁pills	-3134
▁التنس	-3135
▁النوم	-3136
▁الولا	-3137
▁تماما	-3138
▁شيئاً	-3139
▁علاقة	-3140
▁قليلا	-3141
▁United	-3142
▁opened	-3143
▁report	-3144
▁الصباح	-3145
▁القطار	-3146
▁سيّارة	-3147
▁minutes	-3148
▁بالنسبة	-3149
▁sleeping	-3150
▁afternoon	-3151
▁Palestinian	-3152
ثل	-3153
ظا	-3154
نق	-3155
َح	-3156
َع	-3157
ert	-3158
iet	-3159
sel	-3160
جار	-3161
ريا	-3162
علي	-3163
ليب	-3164
▁Af	-3165
▁Pe	-3166
▁إل	-3167
▁عش	-3168
▁هك	-3169
oint	-3170
ured	-3171
ures	-3172
تكون	-3173
ثنين	-3174
دخين	-3175
قابل	-3176
▁Sun	-3177
▁flo	-3178
▁gun	-3179
▁sla	-3180
▁swe	-3181
▁أتت	-3182
▁بعي	-3183
▁بيت	-3184
▁تمّ	-3185
▁مكت	-3186
شتريت	-3187
▁cent	-3188
▁exam	-3189
▁land	-3190
▁poor	-3191
▁shot	-3192
▁اتصل	-3193
▁الأب	-3194
▁الثّ	-3195
▁لتوم	-3196
▁وقتا	-3197
▁يأتي	-3198
▁يقضي	-3199
▁Farid	-3200
▁grand	-3201
▁human	-3202
▁movie	-3203
▁الجمل	-3204
▁ملابس	-3205
ression	-3206
▁alcoho	-3207
▁almost	-3208
▁honest	-3209
▁pocket	-3210
▁البلدة	-3211
▁اللغات	-3212
▁الهاتف	-3213
▁between	-3214
▁classes	-3215
▁glasses	-3216
▁respect	-3217
▁shouldn	-3218
▁everyone	-3219
ph	-3220
حث	-3221
دن	-3222
شة	-3223
طق	-3224
هن	-3225
يّ	-3226
ْد	-3227
▁9	-3228
ilt	-3229
ائب	-3230
داد	-3231
راض	-3232
ربة	-3233
طان	-3234
هار	-3235
▁جز	-3236
▁رؤ	-3237
▁سر	-3238
▁طف	-3239
▁لش	-3240
stit	-3241
خدام	-3242
▁col	-3243
▁nam	-3244
▁nur	-3245
▁أرب	-3246
▁اقت	-3247
▁اكت	-3248
▁انه	-3249
▁جاء	-3250
▁جدي	-3251
▁لاح	-3252
▁للا	-3253
▁مسل	-3254
▁موج	-3255
ities	-3256
itted	-3257
سطيني	-3258
هتمام	-3259
▁bicy	-3260
▁fish	-3261
▁sick	-3262
▁أحضر	-3263
▁العا	-3264
▁بخير	-3265
▁بهذه	-3266
▁توقف	-3267
▁صباح	-3268
▁مسلم	-3269
▁blood	-3270
▁الآخر	-3271
▁الدرا	-3272
▁سعيدة	-3273
▁للعيش	-3274
▁مدينة	-3275
▁moment	-3276
▁التحدث	-3277
▁التّين	-3278
▁stopped	-3279
▁writing	-3280
▁إسرائيل	-3281
▁الأشياء	-3282
▁البيانو	-3283
▁drinking	-3284
av	-3285
ps	-3286
قف	-3287
ِك	-3288
ial	-3289
umb	-3290
ush	-3291
uss	-3292
امح	-3293
باء	-3294
حيل	-3295
ديق	-3296
رّض	-3297
سان	-3298
طقة	-3299
نسا	-3300
نسى	-3301
وبي	-3302
ورك	-3303
ونه	-3304
ينا	-3305
▁sy	-3306
▁حص	-3307
انون	-3308
ستان	-3309
▁New	-3310
▁aff	-3311
▁احت	-3312
▁جعل	-3313
▁حقي	-3314
▁خطأ	-3315
▁راي	-3316
▁عاش	-3317
▁نائ	-3318
▁هيا	-3319
board	-3320
clock	-3321
▁grow	-3322
▁keys	-3323
▁less	-3324
▁lose	-3325
▁meat	-3326
▁opin	-3327
▁park	-3328
▁reco	-3329
▁إليه	-3330
▁بالش	-3331
▁صغير	-3332
▁نذهب	-3333
▁هكذا	-3334
selves	-3335
▁beach	-3336
▁uncle	-3337
▁البعض	-3338
▁الشّا	-3339
▁الولد	-3340
▁street	-3341
▁ticket	-3342
iversity	-3343
▁bicycle	-3344
▁explain	-3345
▁learned	-3346
▁outside	-3347
▁التدخين	-3348
▁national	-3349
▁swimming	-3350
▁teachers	-3351
▁Everybody	-3352
na	-3353
سَ	-3354
فه	-3355
ِد	-3356
ces	-3357
أتي	-3358
دخل	-3359
ريك	-3360
ضعت	-3361
فتح	-3362
قول	-3363
هور	-3364
وار	-3365
▁اغ	-3366
▁حم	-3367
▁قُ	-3368
▁وت	-3369
▁وك	-3370
anni	-3371
atur	-3372
ined	-3373
عيّة	-3374
▁gen	-3375
▁حبّ	-3376
▁خلف	-3377
▁ربّ	-3378
▁عبر	-3379
▁فتح	-3380
▁كأن	-3381
▁لعب	-3382
▁لّي	-3383
▁مرح	-3384
▁واج	-3385
ccess	-3386
▁اللّ	-3387
▁سؤال	-3388
▁شكرا	-3389
▁صورة	-3390
▁طويل	-3391
▁فحسب	-3392
▁فريد	-3393
▁نسيت	-3394
▁يسبق	-3395
▁China	-3396
▁Yanni	-3397
▁later	-3398
▁quite	-3399
▁slept	-3400
▁الأكل	-3401
▁العام	-3402
▁مختلف	-3403
▁مشكلة	-3404
▁inside	-3405
▁murder	-3406
▁taking	-3407
▁الرياض	-3408
▁العشاء	-3409
▁الماضية	-3410
▁studying	-3411
▁listening	-3412
▁اليابانية	-3413
ss	-3414
سّ	-3415
عج	-3416
الا	-3417
▁فخ	-3418
▁كأ	-3419
▁لب	-3420
▁ور	-3421
land	-3422
ؤلاء	-3423
قائق	-3424
واعد	-3425
وكيو	-3426
ومات	-3427
▁age	-3428
▁fix	-3429
▁hid	-3430
▁pur	-3431
▁sim	-3432
▁الظ	-3433
▁الْ	-3434
▁باش	-3435
▁تغي	-3436
▁خمس	-3437
▁سبق	-3438
▁شهر	-3439
▁وُل	-3440
eared	-3441
ution	-3442
▁fail	-3443
▁jail	-3444
▁sign	-3445
▁أعمل	-3446
▁المغ	-3447
▁الور	-3448
▁انته	-3449
▁مرّة	-3450
▁يشرب	-3451
▁earth	-3452
▁exper	-3453
▁marry	-3454
▁order	-3455
▁shoot	-3456
▁store	-3457
▁اشترى	-3458
▁اعتقد	-3459
▁بينما	-3460
▁تعتقد	-3461
▁تلقّى	-3462
▁مسيحي	-3463
▁German	-3464
▁course	-3465
▁inform	-3466
▁making	-3467
▁prefer	-3468
▁walked	-3469
▁البقاء	-3470
▁الحادث	-3471
▁الطعام	-3472
▁المسجد	-3473
▁المكان	-3474
▁كثيرًا	-3475
▁يمكننا	-3476
▁serious	-3477
▁smoking	-3478
▁spending	-3479
▁المساعدة	-3480
▁الولايات	-3481
▁different	-3482
gr	-3483
yo	-3484
تة	-3485
تِ	-3486
عك	-3487
ً؟	-3488
ift	-3489
oto	-3490
ual	-3491
انت	-3492
بلغ	-3493
بّد	-3494
سمح	-3495
ضحك	-3496
كثر	-3497
▁تا	-3498
▁ته	-3499
▁جل	-3500
▁رم	-3501
▁شئ	-3502
▁قب	-3503
▁نس	-3504
▁وش	-3505
okyo	-3506
ract	-3507
ying	-3508
جابة	-3509
جددا	-3510
ديمة	-3511
ليّة	-3512
▁Mon	-3513
▁pat	-3514
▁rac	-3515
▁sil	-3516
▁tou	-3517
▁ابت	-3518
▁بلا	-3519
▁جيّ	-3520
▁عدد	-3521
▁قرأ	-3522
▁للإ	-3523
▁للت	-3524
▁متأ	-3525
▁متع	-3526
▁محق	-3527
▁نوم	-3528
bably	-3529
ction	-3530
itten	-3531
phone	-3532
ushed	-3533
▁Just	-3534
▁body	-3535
▁disc	-3536
▁kids	-3537
▁move	-3538
▁paid	-3539
▁prin	-3540
▁team	-3541
▁أختي	-3542
▁أعيش	-3543
▁أيام	-3544
▁إنهم	-3545
▁طريق	-3546
▁مكتب	-3547
▁يكفي	-3548
ressed	-3549
▁Tokyo	-3550
▁agree	-3551
▁pract	-3552
▁white	-3553
▁أطفال	-3554
▁أعطني	-3555
▁سأذهب	-3556
▁طوكيو	-3557
▁طويلة	-3558
▁متأكد	-3559
▁States	-3560
▁Sunday	-3561
▁scared	-3562
▁الحصول	-3563
▁النّاس	-3564
▁allowed	-3565
▁forgive	-3566
▁أيمكنني	-3567
▁الرسالة	-3568
▁probably	-3569
▁speaking	-3570
▁المفاتيح	-3571
▁attention	-3572
▁completely	-3573
ضح	-3574
ظم	-3575
عو	-3576
ash	-3577
eal	-3578
iot	-3579
oth	-3580
ئلة	-3581
تار	-3582
دات	-3583
رائ	-3584
صدق	-3585
طني	-3586
منى	-3587
هذا	-3588
▁ru	-3589
▁بِ	-3590
▁رح	-3591
▁عط	-3592
▁وي	-3593
atic	-3594
fort	-3595
razy	-3596
بيّة	-3597
جبني	-3598
▁ate	-3599
▁exc	-3600
▁pri	-3601
▁pun	-3602
▁sus	-3603
▁آمل	-3604
▁بنا	-3605
▁خاص	-3606
▁صدا	-3607
▁للش	-3608
dered	-3609
▁blue	-3610
▁dist	-3611
▁doll	-3612
▁game	-3613
▁past	-3614
▁quit	-3615
▁song	-3616
▁العل	-3617
▁المخ	-3618
▁تدرس	-3619
▁حاجة	-3620
▁طالب	-3621
▁فعله	-3622
▁والد	-3623
▁يسمع	-3624
▁floor	-3625
▁أصبحت	-3626
▁المنا	-3627
▁بالنّ	-3628
▁صغيرة	-3629
▁عليها	-3630
▁قراءة	-3631
▁يستمع	-3632
▁Monday	-3633
▁picked	-3634
▁respon	-3635
▁animals	-3636
▁popular	-3637
▁success	-3638
▁usually	-3639
▁whether	-3640
▁السباحة	-3641
▁American	-3642
▁medicine	-3643
6.	-3644
by	-3645
uc	-3646
فى	-3647
كّ	-3648
لع	-3649
irt	-3650
man	-3651
rem	-3652
باب	-3653
جاب	-3654
رقص	-3655
ريس	-3656
ومة	-3657
َيْ	-3658
ّيت	-3659
▁او	-3660
▁تؤ	-3661
▁نج	-3662
▁وح	-3663
▁وم	-3664
▁وَ	-3665
ball	-3666
ding	-3667
ored	-3668
orts	-3669
اليا	-3670
▁Jim	-3671
▁def	-3672
▁أهل	-3673
▁ارت	-3674
▁دعى	-3675
▁سرق	-3676
▁ضرب	-3677
▁مرت	-3678
▁وحد	-3679
▁وما	-3680
▁وين	-3681
ained	-3682
veral	-3683
ساعدك	-3684
▁bank	-3685
▁fine	-3686
▁ride	-3687
▁إليك	-3688
▁استم	-3689
▁الحا	-3690
▁تلعب	-3691
▁طعام	-3692
▁فقدت	-3693
▁لطيف	-3694
▁نريد	-3695
▁chair	-3696
▁exact	-3697
▁older	-3698
▁smell	-3699
▁worth	-3700
▁الشخص	-3701
▁تعرّف	-3702
▁تعلّم	-3703
▁مشغول	-3704
▁هؤلاء	-3705
▁يعتقد	-3706
▁caught	-3707
▁crying	-3708
▁finish	-3709
▁السّجن	-3710
▁الفتاة	-3711
▁حياتها	-3712
▁alcohol	-3713
▁evening	-3714
▁several	-3715
▁العربية	-3716
▁الاجتماع	-3717
▁information	-3718
ef	-3719
ma	-3720
ny	-3721
ثة	-3722
قر	-3723
َب	-3724
ُق	-3725
ّو	-3726
ats	-3727
ins	-3728
iol	-3729
rib	-3730
sib	-3731
ury	-3732
باد	-3733
بير	-3734
ديم	-3735
لين	-3736
يّة	-3737
▁بب	-3738
▁جا	-3739
▁غي	-3740
▁كر	-3741
▁لج	-3742
▁مه	-3743
▁يز	-3744
▁يو	-3745
cess	-3746
hose	-3747
olog	-3748
outh	-3749
انسي	-3750
وضوع	-3751
▁amb	-3752
▁ant	-3753
▁bag	-3754
▁opp	-3755
▁درس	-3756
▁رأى	-3757
▁رفض	-3758
▁طفل	-3759
▁عرض	-3760
▁عرف	-3761
▁مرا	-3762
▁ناد	-3763
▁نحب	-3764
▁يدي	-3765
صدقاء	-3766
▁cats	-3767
▁enem	-3768
▁hist	-3769
▁stra	-3770
▁أحدا	-3771
▁ارتك	-3772
▁الأز	-3773
▁التا	-3774
▁باست	-3775
▁بالع	-3776
▁تملك	-3777
▁خارج	-3778
▁طبيب	-3779
▁طلبت	-3780
▁عالم	-3781
▁لوحة	-3782
▁نعرف	-3783
▁Those	-3784
▁built	-3785
▁crazy	-3786
▁lunch	-3787
▁means	-3788
▁quiet	-3789
▁touch	-3790
▁البحر	-3791
▁السنة	-3792
▁حاولت	-3793
▁دعونا	-3794
▁دقيقة	-3795
▁ربّما	-3796
▁مجددا	-3797
▁arrest	-3798
▁showed	-3799
▁الأولى	-3800
▁foreign	-3801
▁present	-3802
▁weather	-3803
▁problems	-3804
▁somebody	-3805
▁thinking	-3806
▁بالنّسبة	-3807
بو	-3808
غر	-3809
كس	-3810
Say	-3811
oub	-3812
uro	-3813
ارت	-3814
تبه	-3815
راك	-3816
عاً	-3817
نون	-3818
هُم	-3819
▁20	-3820
▁أز	-3821
▁اع	-3822
▁دخ	-3823
▁ري	-3824
▁مظ	-3825
,000	-3826
enty	-3827
onna	-3828
tern	-3829
عمال	-3830
▁ann	-3831
▁arm	-3832
▁dad	-3833
▁sci	-3834
▁أحم	-3835
▁بطا	-3836
▁خطر	-3837
▁ذات	-3838
▁غال	-3839
▁كلا	-3840
▁نوع	-3841
Sayib	-3842
arden	-3843
▁club	-3844
▁deep	-3845
▁inst	-3846
▁math	-3847
▁slow	-3848
▁snow	-3849
▁الات	-3850
▁الصح	-3851
▁العن	-3852
▁القر	-3853
▁انها	-3854
▁بالل	-3855
▁قالت	-3856
▁قريب	-3857
▁كلمة	-3858
▁مطعم	-3859
▁نفسك	-3860
leased	-3861
▁bring	-3862
▁clear	-3863
▁dance	-3864
▁eight	-3865
▁gonna	-3866
▁أتذكر	-3867
▁الإنت	-3868
▁الشاي	-3869
▁انتقل	-3870
▁جامعة	-3871
▁طريقة	-3872
▁فرنسا	-3873
▁berber	-3874
▁choice	-3875
▁concer	-3876
▁during	-3877
▁expens	-3878
▁garden	-3879
▁missed	-3880
▁secret	-3881
▁seeing	-3882
▁summer	-3883
▁الجملة	-3884
▁الحفلة	-3885
ointment	-3886
▁anybody	-3887
▁bedroom	-3888
▁forward	-3889
▁building	-3890
▁keyboard	-3891
▁received	-3892
ik	-3893
lc	-3894
بض	-3895
ثق	-3896
َك	-3897
ُك	-3898
ْ.	-3899
▁”	-3900
cip	-3901
ech	-3902
nel	-3903
ude	-3904
أكل	-3905
جأة	-3906
دّق	-3907
رجم	-3908
طار	-3909
طلع	-3910
وسا	-3911
ّصل	-3912
▁Me	-3913
▁ed	-3914
▁id	-3915
▁تط	-3916
▁زل	-3917
dred	-3918
ffic	-3919
iled	-3920
reen	-3921
ross	-3922
ster	-3923
جتمع	-3924
ليزي	-3925
▁Get	-3926
▁lie	-3927
▁أمس	-3928
▁بري	-3929
▁تفا	-3930
▁جاه	-3931
▁رقم	-3932
▁زال	-3933
▁ظهر	-3934
▁عال	-3935
▁عدة	-3936
▁قلم	-3937
▁لفا	-3938
▁مرض	-3939
▁ملك	-3940
▁نعم	-3941
▁وعد	-3942
▁يعد	-3943
ience	-3944
vious	-3945
▁Life	-3946
▁Wait	-3947
▁dark	-3948
▁dest	-3949
▁fall	-3950
▁fill	-3951
▁glad	-3952
▁kiss	-3953
▁lead	-3954
▁luck	-3955
▁poin	-3956
▁pray	-3957
▁radi	-3958
▁requ	-3959
▁trip	-3960
▁أنّي	-3961
▁الأد	-3962
▁الإس	-3963
▁الحب	-3964
▁تبحث	-3965
▁جائع	-3966
▁خطير	-3967
▁دولا	-3968
▁عشرة	-3969
▁كلاب	-3970
▁لستُ	-3971
▁نقدر	-3972
▁هادي	-3973
▁وجدت	-3974
▁يشعر	-3975
▁يفهم	-3976
▁يقتل	-3977
▁Today	-3978
▁ended	-3979
▁fight	-3980
▁hurry	-3981
▁idiot	-3982
▁stole	-3983
▁video	-3984
▁أتمنى	-3985
▁الألم	-3986
▁السّي	-3987
▁الشمس	-3988
▁العيش	-3989
▁اللحم	-3990
▁either	-3991
▁rather	-3992
▁result	-3993
▁travel	-3994
▁الأمور	-3995
▁السرير	-3996
▁المفضل	-3997
▁المكتب	-3998
▁مدرّسي	-3999
▁مشغولا	-4000
▁نستطيع	-4001
▁herself	-4002
▁history	-4003
▁hundred	-4004
▁leaving	-4005
▁perform	-4006
▁promise	-4007
▁strange	-4008
▁visited	-4009
▁watched	-4010
▁weekend	-4011
▁النافذة	-4012
▁continued	-4013
▁appointment	-4014
ئا	-4015
خا	-4016
فّ	-4017
قع	-4018
هِ	-4019
ۆن	-4020
bit	-4021
den	-4022
ead	-4023
oss	-4024
rol	-4025
ابق	-4026
ارك	-4027
جلس	-4028
رفع	-4029
روج	-4030
ساب	-4031
طاء	-4032
فسي	-4033
قاب	-4034
ياه	-4035
▁Ex	-4036
▁ma	-4037
▁سه	-4038
▁صو	-4039
▁لق	-4040
▁هن	-4041
▁وإ	-4042
airs	-4043
oned	-4044
ادرة	-4045
انّي	-4046
دّدا	-4047
ساءل	-4048
▁Bob	-4049
▁Now	-4050
▁fam	-4051
▁ins	-4052
▁occ	-4053
▁sea	-4054
▁آكل	-4055
▁ألف	-4056
▁باب	-4057
▁بوب	-4058
▁تري	-4059
▁تظن	-4060
▁جوا	-4061
▁خير	-4062
▁سأت	-4063
▁فوق	-4064
▁قنا	-4065
▁قول	-4066
▁كام	-4067
▁ممت	-4068
▁يحت	-4069
▁يصل	-4070
▁يعت	-4071
ached	-4072
estig	-4073
▁Ital	-4074
▁Kaby	-4075
▁cost	-4076
▁expl	-4077
▁fear	-4078
▁grew	-4079
▁surv	-4080
▁viol	-4081
▁yell	-4082
▁أقرأ	-4083
▁الجم	-4084
▁السي	-4085
▁الصف	-4086
▁الفت	-4087
▁الكر	-4088
▁بيتي	-4089
▁حاجا	-4090
▁رأيك	-4091
▁سألت	-4092
▁غاضب	-4093
▁قادر	-4094
▁يرام	-4095
▁girls	-4096
▁horse	-4097
▁known	-4098
▁laugh	-4099
▁peace	-4100
▁plane	-4101
▁radio	-4102
▁yours	-4103
▁أسبوع	-4104
▁الأحد	-4105
▁الجنس	-4106
▁السيد	-4107
▁الصيف	-4108
▁الطفل	-4109
▁دقائق	-4110
▁رائحة	-4111
▁صديقي	-4112
▁كانوا	-4113
▁مسلما	-4114
▁يانّي	-4115
ination	-4116
ossible	-4117
▁People	-4118
▁closed	-4119
▁famous	-4120
▁member	-4121
▁played	-4122
▁racist	-4123
▁social	-4124
▁stayed	-4125
▁اشتريت	-4126
▁الأيام	-4127
▁الحليب	-4128
▁الصورة	-4129
▁الطبيب	-4130
▁address	-4131
▁feeling	-4132
▁finally	-4133
▁patient	-4134
▁wearing	-4135
▁written	-4136
▁استخدام	-4137
▁الآخرين	-4138
▁الجديدة	-4139
▁الفيديو	-4140
▁decision	-4141
bs	-4142
oc	-4143
أت	-4144
زح	-4145
▁پ	-4146
cce	-4147
era	-4148
eth	-4149
llo	-4150
uit	-4151
دار	-4152
دّة	-4153
ركض	-4154
رّر	-4155
فاء	-4156
ماً	-4157
يرة	-4158
ّرت	-4159
▁OK	-4160
▁بو	-4161
▁رس	-4162
▁كت	-4163
adiq	-4164
iday	-4165
irty	-4166
medi	-4167
rees	-4168
road	-4169
sing	-4170
ائرة	-4171
راحة	-4172
لاقة	-4173
واصل	-4174
▁dem	-4175
▁dev	-4176
▁par	-4177
▁sal	-4178
▁أجد	-4179
▁أنق	-4180
▁إبن	-4181
▁تعد	-4182
▁راح	-4183
▁سائ	-4184
▁سيت	-4185
▁سين	-4186
▁غبي	-4187
▁كين	-4188
▁لمن	-4189
▁محا	-4190
▁نتا	-4191
▁نست	-4192
▁ياب	-4193
acked	-4194
brary	-4195
cceed	-4196
ondon	-4197
verse	-4198
دّرات	-4199
▁With	-4200
▁cond	-4201
▁figs	-4202
▁form	-4203
▁guys	-4204
▁test	-4205
▁أعطي	-4206
▁أننا	-4207
▁الفل	-4208
▁دعنا	-4209
▁شراء	-4210
▁فعلت	-4211
▁كيما	-4212
▁لحظة	-4213
▁لمدة	-4214
▁مثلي	-4215
▁مرات	-4216
▁مفتو	-4217
▁موعد	-4218
▁يسكن	-4219
father	-4220
▁Nancy	-4221
▁Sadiq	-4222
▁alive	-4223
▁clock	-4224
▁least	-4225
▁named	-4226
▁nurse	-4227
▁proud	-4228
▁river	-4229
▁sweet	-4230
▁أصدقا	-4231
▁التّل	-4232
▁القدم	-4233
▁ساعات	-4234
▁سيأتي	-4235
▁طبيبا	-4236
▁مشاكل	-4237
▁منزلي	-4238
▁نحتاج	-4239
▁يشاهد	-4240
▁London	-4241
▁convin	-4242
▁extrem	-4243
▁immedi	-4244
▁longer	-4245
▁minute	-4246
▁pillow	-4247
▁prison	-4248
▁rights	-4249
▁talked	-4250
▁استيقظ	-4251
▁الفندق	-4252
▁القادم	-4253
▁القليل	-4254
▁النساء	-4255
▁بالقرب	-4256
▁مستشفى	-4257
▁Chinese	-4258
▁airport	-4259
▁collect	-4260
▁library	-4261
▁opinion	-4262
▁sitting	-4263
▁succeed	-4264
▁الإطلاق	-4265
▁الطّبيب	-4266
▁birthday	-4267
▁returned	-4268
▁shopping	-4269
▁standing	-4270
▁المسلمون	-4271
▁telephone	-4272
▁medication	-4273
▁immediately	-4274
▁interesting	-4275
ey	-4276
pl	-4277
بب	-4278
رم	-4279
يم	-4280
ٌ.	-4281
ُو	-4282
▁'	-4283
▁ڨ	-4284
col	-4285
erv	-4286
ism	-4287
ler	-4288
بقى	-4289
تمد	-4290
تهي	-4291
جاح	-4292
حاب	-4293
ركز	-4294
ستي	-4295
عاف	-4296
فاق	-4297
▁Tr	-4298
▁رو	-4299
▁مذ	-4300
▁نم	-4301
▁ني	-4302
ific	-4303
oose	-4304
rell	-4305
urry	-4306
انيش	-4307
حيان	-4308
ديّة	-4309
▁Was	-4310
▁bor	-4311
▁cop	-4312
▁equ	-4313
▁inj	-4314
▁umb	-4315
▁أسا	-4316
▁أيض	-4317
▁جزء	-4318
▁جيم	-4319
▁خطي	-4320
▁دفع	-4321
▁رأس	-4322
▁ستّ	-4323
▁سري	-4324
▁قرا	-4325
▁معل	-4326
▁نحو	-4327
▁نظر	-4328
▁هلا	-4329
▁وقع	-4330
▁ينت	-4331
aster	-4332
ology	-4333
urope	-4334
vered	-4335
▁bath	-4336
▁bill	-4337
▁boss	-4338
▁cast	-4339
▁desk	-4340
▁fuck	-4341
▁prep	-4342
▁priv	-4343
▁safe	-4344
▁أخرج	-4345
▁أراك	-4346
▁أسرة	-4347
▁إنني	-4348
▁الحم	-4349
▁انظر	-4350
▁تركت	-4351
▁تصبح	-4352
▁تفضل	-4353
▁شاهد	-4354
▁صعبة	-4355
▁فيما	-4356
▁لذلك	-4357
▁لندن	-4358
▁نظرة	-4359
▁هادا	-4360
▁يدرس	-4361
▁يقوم	-4362
▁يكتب	-4363
vision	-4364
▁drank	-4365
▁fruit	-4366
▁gener	-4367
▁hates	-4368
▁large	-4369
▁plays	-4370
▁saved	-4371
▁solve	-4372
▁spoke	-4373
▁threw	-4374
▁الإنس	-4375
▁القطط	-4376
▁المعل	-4377
▁حاسوب	-4378
▁ستكون	-4379
▁شيئًا	-4380
▁قريبا	-4381
▁ميلاد	-4382
▁نانسي	-4383
▁يحبون	-4384
▁Europe	-4385
▁France	-4386
▁advice	-4387
▁belong	-4388
▁chance	-4389
▁depend	-4390
▁الخروج	-4391
▁مجدّدا	-4392
▁مشاهدة	-4393
▁يستحقّ	-4394
▁enjoyed	-4395
▁exactly	-4396
▁princip	-4397
▁studied	-4398
▁umbrell	-4399
▁الحديقة	-4400
▁النّافذة	-4401
▁convinced	-4402
▁everybody	-4403
▁translate	-4404
▁treatment	-4405
▁الحيوانات	-4406
mp	-4407
uz	-4408
ئك	-4409
بز	-4410
ثا	-4411
كو	-4412
نو	-4413
وأ	-4414
ٍ.	-4415
ْم	-4416
▁Q	-4417
ane	-4418
gar	-4419
itc	-4420
ket	-4421
old	-4422
usb	-4423
بال	-4424
حية	-4425
ماد	-4426
مار	-4427
مسة	-4428
نعم	-4429
▁ta	-4430
▁بغ	-4431
▁تز	-4432
▁لِ	-4433
▁هد	-4434
amad	-4435
fast	-4436
ging	-4437
ible	-4438
iter	-4439
itic	-4440
reci	-4441
vern	-4442
فينة	-4443
قراص	-4444
وافق	-4445
▁abs	-4446
▁cup	-4447
▁fut	-4448
▁led	-4449
▁pie	-4450
▁rob	-4451
▁sad	-4452
▁إني	-4453
▁ادا	-4454
▁حدي	-4455
▁فلن	-4456
▁قلب	-4457
▁كنا	-4458
▁كول	-4459
▁لسا	-4460
▁للح	-4461
▁للس	-4462
▁للع	-4463
▁مسا	-4464
▁يرد	-4465
cause	-4466
irsty	-4467
lcome	-4468
right	-4469
▁Lord	-4470
▁Most	-4471
▁bike	-4472
▁burn	-4473
▁cell	-4474
▁cert	-4475
▁foot	-4476
▁half	-4477
▁mail	-4478
▁shut	-4479
▁wine	-4480
▁أغلق	-4481
▁اذهب	-4482
▁اسمه	-4483
▁اسمي	-4484
▁السر	-4485
▁الشا	-4486
▁القد	-4487
▁تقري	-4488
▁تقوم	-4489
▁حادث	-4490
▁حذاء	-4491
▁دعني	-4492
▁شخصا	-4493
▁كنتُ	-4494
▁كهذا	-4495
▁متعب	-4496
▁مشكل	-4497
▁منّي	-4498
▁ندير	-4499
▁يبحث	-4500
▁يمضي	-4501
reedom	-4502
usband	-4503
▁Hello	-4504
▁bread	-4505
▁creat	-4506
▁crime	-4507
▁divor	-4508
▁knife	-4509
▁weren	-4510
▁أتعلم	-4511
▁السفر	-4512
▁السمك	-4513
▁لاحقا	-4514
▁لفاضل	-4515
▁appear	-4516
▁movies	-4517
▁الصائب	-4518
▁بطريقة	-4519
▁Nothing	-4520
▁correct	-4521
▁freedom	-4522
▁running	-4523
▁الأقراص	-4524
▁الطائرة	-4525
▁القانون	-4526
▁اللّيلة	-4527
▁brothers	-4528
▁umbrella	-4529
▁breakfast	-4530
:3	-4531
ثت	-4532
شْ	-4533
صّ	-4534
قس	-4535
وش	-4536
وص	-4537
َى	-4538
ْب	-4539
erc	-4540
iew	-4541
ird	-4542
uge	-4543
une	-4544
أخذ	-4545
ارع	-4546
افة	-4547
اله	-4548
بعة	-4549
بعض	-4550
دمة	-4551
ضّل	-4552
كين	-4553
مًا	-4554
ناه	-4555
ّون	-4556
▁حس	-4557
▁غد	-4558
▁غض	-4559
▁قَ	-4560
▁لر	-4561
▁لز	-4562
▁وز	-4563
ents	-4564
idge	-4565
ling	-4566
ones	-4567
uing	-4568
ully	-4569
حتمل	-4570
رتها	-4571
قدّم	-4572
كتبة	-4573
كتور	-4574
واجه	-4575
ياته	-4576
▁box	-4577
▁egg	-4578
▁fit	-4579
▁fly	-4580
▁gar	-4581
▁ألق	-4582
▁احب	-4583
▁جال	-4584
▁طول	-4585
▁للك	-4586
▁مِن	-4587
▁وسا	-4588
ature	-4589
owers	-4590
ّارات	-4591
▁area	-4592
▁bird	-4593
▁chur	-4594
▁inno	-4595
▁kitc	-4596
▁prop	-4597
▁save	-4598
▁sell	-4599
▁side	-4600
▁أشهر	-4601
▁أكره	-4602
▁الأص	-4603
▁الشي	-4604
▁العد	-4605
▁بعيد	-4606
▁تبدأ	-4607
▁تقرأ	-4608
▁تنظر	-4609
▁حكما	-4610
▁خائف	-4611
▁ظننت	-4612
▁فرصة	-4613
▁لوحد	-4614
▁هاتف	-4615
▁والأ	-4616
▁يعني	-4617
▁After	-4618
▁Bring	-4619
▁Hurry	-4620
▁Never	-4621
▁color	-4622
▁share	-4623
▁taken	-4624
▁أحاول	-4625
▁أخيرا	-4626
▁أشتري	-4627
▁اختفى	-4628
▁الأقل	-4629
▁القبا	-4630
▁الليل	-4631
▁تعرّض	-4632
▁ثانية	-4633
▁رأيته	-4634
▁زوجته	-4635
▁سعيدا	-4636
▁كتابك	-4637
▁مسلمة	-4638
▁مشهور	-4639
▁مفتاح	-4640
▁Listen	-4641
▁abroad	-4642
▁affair	-4643
▁apples	-4644
▁except	-4645
▁govern	-4646
▁helped	-4647
▁recogn	-4648
▁taught	-4649
▁الحديث	-4650
▁السلام	-4651
▁السماء	-4652
▁الشجرة	-4653
▁الكلمة	-4654
▁appreci	-4655
▁control	-4656
▁entered	-4657
▁happens	-4658
▁husband	-4659
▁kitchen	-4660
▁traffic	-4661
▁الكلمات	-4662
▁الملابس	-4663
▁arrested	-4664
▁investig	-4665
▁pregnant	-4666
▁surprise	-4667
▁الأصدقاء	-4668
▁countries	-4669
▁expensive	-4670
▁University	-4671
▁depression	-4672
▁impossible	-4673
▁television	-4674
ذن	-4675
شى	-4676
لج	-4677
مه	-4678
ً،	-4679
ّت	-4680
ّق	-4681
▁6	-4682
▁V	-4683
ges	-4684
ral	-4685
set	-4686
unk	-4687
ئاب	-4688
تين	-4689
جاد	-4690
جوز	-4691
سته	-4692
سمه	-4693
ضان	-4694
قيت	-4695
وتو	-4696
وري	-4697
▁حو	-4698
▁سو	-4699
▁ضع	-4700
▁لع	-4701
ants	-4702
ches	-4703
clud	-4704
iced	-4705
ices	-4706
laim	-4707
ules	-4708
راسة	-4709
شتغل	-4710
غنية	-4711
فعله	-4712
قيّة	-4713
ّيّة	-4714
▁See	-4715
▁ris	-4716
▁sky	-4717
▁vac	-4718
▁أقل	-4719
▁أهم	-4720
▁أور	-4721
▁أَن	-4722
▁أُح	-4723
▁بسي	-4724
▁ترا	-4725
▁توف	-4726
▁جاك	-4727
▁حيث	-4728
▁حيّ	-4729
▁ساف	-4730
▁فكر	-4731
▁لمَ	-4732
ently	-4733
ories	-4734
▁Even	-4735
▁Jack	-4736
▁Turn	-4737
▁ball	-4738
▁cake	-4739
▁case	-4740
▁doub	-4741
▁purp	-4742
▁sear	-4743
▁whom	-4744
▁أخذت	-4745
▁أسمع	-4746
▁أطلق	-4747
▁أطول	-4748
▁أقنع	-4749
▁أملك	-4750
▁أنقذ	-4751
▁التق	-4752
▁الرأ	-4753
▁الضّ	-4754
▁العب	-4755
▁خرجت	-4756
▁رؤية	-4757
▁لكنه	-4758
▁لهذه	-4759
▁معها	-4760
▁مهتم	-4761
▁وضعت	-4762
▁يحصل	-4763
▁يقرأ	-4764
amadan	-4765
friend	-4766
ousand	-4767
مازيغي	-4768
▁2006.	-4769
▁Canad	-4770
▁apart	-4771
▁girlf	-4772
▁mouth	-4773
▁point	-4774
▁sense	-4775
▁teeth	-4776
▁terri	-4777
▁twice	-4778
▁استمع	-4779
▁الطّا	-4780
▁الموت	-4781
▁بنفسك	-4782
▁بنفسي	-4783
▁وظيفة	-4784
▁يمكنه	-4785
▁apolog	-4786
▁bottle	-4787
▁camera	-4788
▁church	-4789
▁leaves	-4790
▁scream	-4791
▁second	-4792
▁useful	-4793
▁المطار	-4794
▁المطبخ	-4795
▁الوطني	-4796
▁تخبرني	-4797
▁سيارته	-4798
▁مساعدة	-4799
sibility	-4800
▁Because	-4801
▁Ramadan	-4802
▁attract	-4803
▁contact	-4804
▁discuss	-4805
▁dollars	-4806
▁driving	-4807
▁flowers	-4808
▁slapped	-4809
▁thirsty	-4810
▁الإثنين	-4811
▁الجريمة	-4812
▁الشّاطئ	-4813
▁المكتبة	-4814
▁pictures	-4815
▁الانتظار	-4816
▁التّلفاز	-4817
▁girlfriend	-4818
mb	-4819
اش	-4820
تش	-4821
جئ	-4822
جع	-4823
فز	-4824
قص	-4825
قّ	-4826
وظ	-4827
َس	-4828
َف	-4829
▁١	-4830
con	-4831
ier	-4832
men	-4833
ray	-4834
unt	-4835
way	-4836
توم	-4837
جوم	-4838
جيء	-4839
خبر	-4840
ديا	-4841
دّد	-4842
ذاك	-4843
عير	-4844
كبر	-4845
لبة	-4846
لتي	-4847
ناك	-4848
ورا	-4849
يتك	-4850
▁Ky	-4851
▁Le	-4852
▁تذ	-4853
▁تي	-4854
▁حر	-4855
▁طي	-4856
▁كس	-4857
▁كُ	-4858
▁لد	-4859
▁مد	-4860
▁نخ	-4861
brew	-4862
cuse	-4863
ider	-4864
leep	-4865
omed	-4866
rown	-4867
انات	-4868
ثلاث	-4869
حيّة	-4870
ذهاب	-4871
ظاهر	-4872
▁Jew	-4873
▁Spe	-4874
▁hol	-4875
▁iss	-4876
▁mag	-4877
▁أتي	-4878
▁أشك	-4879
▁إنت	-4880
▁اصط	-4881
▁ترى	-4882
▁تعا	-4883
▁حار	-4884
▁حلم	-4885
▁سرا	-4886
▁شأن	-4887
▁عنص	-4888
▁عنك	-4889
▁كوك	-4890
▁لذي	-4891
▁مسؤ	-4892
▁مسر	-4893
▁يهم	-4894
enced	-4895
fully	-4896
night	-4897
olved	-4898
ublic	-4899
▁Span	-4900
▁base	-4901
▁cars	-4902
▁deal	-4903
▁fool	-4904
▁heav	-4905
▁hold	-4906
▁king	-4907
▁أحبّ	-4908
▁أظنّ	-4909
▁أكتب	-4910
▁أنسى	-4911
▁الغد	-4912
▁بشيء	-4913
▁بلّي	-4914
▁تحبّ	-4915
▁تزال	-4916
▁تكلم	-4917
▁جملة	-4918
▁حايب	-4919
▁رايح	-4920
▁سماع	-4921
▁عنها	-4922
▁قضاء	-4923
▁كاين	-4924
▁كلبه	-4925
▁مخطئ	-4926
▁مدير	-4927
▁معنى	-4928
▁موقع	-4929
▁نكون	-4930
▁وُلد	-4931
▁يصبح	-4932
stairs	-4933
▁birds	-4934
▁enemy	-4935
▁fired	-4936
▁given	-4937
▁lucky	-4938
▁trave	-4939
▁أنّني	-4940
▁البلد	-4941
▁الحقي	-4942
▁المرة	-4943
▁بالسّ	-4944
▁بكثير	-4945
▁توقّف	-4946
▁ديالي	-4947
▁صديقا	-4948
▁مدرسة	-4949
▁نفسها	-4950
▁وماري	-4951
▁يتخاص	-4952
▁يرتدي	-4953
▁يساعد	-4954
▁يستحق	-4955
▁Hebrew	-4956
▁future	-4957
▁hiding	-4958
▁intend	-4959
▁locked	-4960
▁recent	-4961
▁slowly	-4962
▁toward	-4963
▁twenty	-4964
▁الفيلم	-4965
▁ساعدني	-4966
▁سيارتي	-4967
▁لمساعد	-4968
▁مختلفة	-4969
▁يتكلّم	-4970
▁account	-4971
▁channel	-4972
▁painted	-4973
▁windows	-4974
▁الإجابة	-4975
▁الإنسان	-4976
▁الموضوع	-4977
▁answered	-4978
▁الرياضيات	-4979
▁الفلسطيني	-4980
▁المخدّرات	-4981
▁everywhere	-4982
▁government	-4983
▁interested	-4984
ks	-4985
آن	-4986
ئه	-4987
زه	-4988
قَ	-4989
كِ	-4990
نه	-4991
ُد	-4992
▁z	-4993
▁ژ	-4994
aya	-4995
ene	-4996
ety	-4997
oup	-4998
rat	-4999
ues	-5000
أخر	-5001
أنا	-5002
ابه	-5003
تاق	-5004
حدى	-5005
ديل	-5006
ربح	-5007
رتُ	-5008
رجع	-5009
ريف	-5010
رّك	-5011
طّة	-5012
عتي	-5013
كاء	-5014
مطر	-5015
َتْ	-5016
▁Dr	-5017
▁Hi	-5018
▁Of	-5019
▁av	-5020
▁la	-5021
▁اض	-5022
▁بف	-5023
▁سآ	-5024
▁شح	-5025
▁لص	-5026
▁هى	-5027
▁يط	-5028
▁يل	-5029
appy	-5030
ccer	-5031
olen	-5032
أكيد	-5033
افية	-5034
فضّل	-5035
مارس	-5036
هولة	-5037
▁199	-5038
▁Ann	-5039
▁Any	-5040
▁Bet	-5041
▁Hey	-5042
▁Par	-5043
▁Tur	-5044
▁fat	-5045
▁flu	-5046
▁loc	-5047
▁mid	-5048
▁rid	-5049
▁spr	-5050
▁tem	-5051
▁tie	-5052
▁wed	-5053
▁آرت	-5054
▁أصل	-5055
▁أمّ	-5056
▁تأخ	-5057
▁تلم	-5058
▁سقط	-5059
▁صعب	-5060
▁كري	-5061
▁للن	-5062
▁محب	-5063
▁ملا	-5064
▁مين	-5065
▁هما	-5066
▁يتح	-5067
encil	-5068
ental	-5069
ggest	-5070
ويورك	-5071
▁Aart	-5072
▁Aust	-5073
▁Mike	-5074
▁Were	-5075
▁bear	-5076
▁eats	-5077
▁gift	-5078
▁grad	-5079
▁list	-5080
▁loud	-5081
▁mill	-5082
▁post	-5083
▁ring	-5084
▁send	-5085
▁أبحث	-5086
▁الخل	-5087
▁المج	-5088
▁بيته	-5089
▁تأخذ	-5090
▁تقدر	-5091
▁توجد	-5092
▁دخلت	-5093
▁دراج	-5094
▁شركة	-5095
▁صاحب	-5096
▁عايز	-5097
▁غداً	-5098
▁فجأة	-5099
▁فندق	-5100
▁قلته	-5101
▁كلما	-5102
▁للتو	-5103
▁مهما	-5104
▁هلّا	-5105
▁وراء	-5106
▁وظيف	-5107
▁يؤمن	-5108
▁يخبر	-5109
▁Happy	-5110
▁Kyoto	-5111
▁Whose	-5112
▁appro	-5113
▁eaten	-5114
▁hated	-5115
▁paper	-5116
▁power	-5117
▁rules	-5118
▁أربعة	-5119
▁أنهيت	-5120
▁الثلج	-5121
▁الحال	-5122
▁الخلف	-5123
▁الساد	-5124
▁الشيء	-5125
▁الصعب	-5126
▁ترجمة	-5127
▁تفاحة	-5128
▁تقوله	-5129
▁رائعة	-5130
▁قيادة	-5131
▁كتابة	-5132
▁كيوتو	-5133
▁مستعد	-5134
▁يغادر	-5135
▁يوماً	-5136
▁common	-5137
▁easily	-5138
▁necess	-5139
▁pencil	-5140
▁remind	-5141
▁speech	-5142
▁stolen	-5143
▁taller	-5144
▁التفاح	-5145
▁الجمعة	-5146
▁الدواء	-5147
▁الرئيس	-5148
▁الكرسي	-5149
▁certain	-5150
▁message	-5151
▁project	-5152
▁purpose	-5153
▁subject	-5154
▁suggest	-5155
▁أصدقائي	-5156
▁المحتمل	-5157
▁المنطقة	-5158
▁believed	-5159
▁straight	-5160
▁thousand	-5161
▁boyfriend	-5162
▁committed	-5163
▁sometimes	-5164
▁experience	-5165
▁grandfather	-5166
ee	-5167
ئت	-5168
حل	-5169
خة	-5170
زر	-5171
ضت	-5172
طى	-5173
قه	-5174
لو	-5175
ِع	-5176
ِه	-5177
ْع	-5178
esc	-5179
har	-5180
ken	-5181
lie	-5182
ألة	-5183
برد	-5184
بيا	-5185
جبك	-5186
جيج	-5187
حاً	-5188
حصل	-5189
رجح	-5190
رنت	-5191
صرخ	-5192
عكة	-5193
قطع	-5194
قود	-5195
قيم	-5196
لاج	-5197
لاف	-5198
نام	-5199
هذه	-5200
وتي	-5201
وها	-5202
يته	-5203
▁Sm	-5204
▁ty	-5205
▁ve	-5206
▁أض	-5207
▁إق	-5208
▁اش	-5209
▁حذ	-5210
▁حز	-5211
▁خا	-5212
▁رد	-5213
▁ضد	-5214
▁يه	-5215
aged	-5216
ains	-5217
arth	-5218
book	-5219
dden	-5220
ians	-5221
lied	-5222
lled	-5223
ريكي	-5224
فكير	-5225
لكتر	-5226
نيسة	-5227
يران	-5228
▁Ind	-5229
▁War	-5230
▁bar	-5231
▁deb	-5232
▁mad	-5233
▁van	-5234
▁الّ	-5235
▁بتا	-5236
▁تسل	-5237
▁تقل	-5238
▁حسن	-5239
▁ستت	-5240
▁سير	-5241
▁شكل	-5242
▁عني	-5243
▁غني	-5244
▁فِي	-5245
▁قار	-5246
▁قصة	-5247
▁قصي	-5248
▁كاد	-5249
▁لطف	-5250
▁لوح	-5251
▁مؤخ	-5252
▁ماء	-5253
▁مبك	-5254
▁مقا	-5255
▁ممن	-5256
▁نشأ	-5257
▁وفي	-5258
ality	-5259
inite	-5260
ocked	-5261
اليّة	-5262
حترام	-5263
▁Baya	-5264
▁Love	-5265
▁Make	-5266
▁Move	-5267
▁York	-5268
▁camp	-5269
▁clos	-5270
▁cult	-5271
▁eggs	-5272
▁poem	-5273
▁sold	-5274
▁upon	-5275
▁vict	-5276
▁أسكن	-5277
▁أقرا	-5278
▁أقرب	-5279
▁أمضى	-5280
▁الأع	-5281
▁الام	-5282
▁البش	-5283
▁الحد	-5284
▁المف	-5285
▁بأني	-5286
▁بالط	-5287
▁بالغ	-5288
▁تسكن	-5289
▁تفهم	-5290
▁حالك	-5291
▁داخل	-5292
▁دولة	-5293
▁شعرت	-5294
▁علاب	-5295
▁عينا	-5296
▁غريب	-5297
▁قليل	-5298
▁قناة	-5299
▁كلبي	-5300
▁كوكب	-5301
▁مايك	-5302
▁معظم	-5303
▁منها	-5304
▁نفسي	-5305
▁وجود	-5306
▁يبدأ	-5307
▁يعود	-5308
عربيّة	-5309
▁Earth	-5310
▁Paris	-5311
▁Somet	-5312
▁Sorry	-5313
▁Their	-5314
▁ambul	-5315
▁const	-5316
▁cried	-5317
▁drove	-5318
▁drunk	-5319
▁elect	-5320
▁exist	-5321
▁green	-5322
▁greet	-5323
▁novel	-5324
▁produ	-5325
▁teach	-5326
▁أتحدث	-5327
▁الخير	-5328
▁النار	-5329
▁النصف	-5330
▁ترتدي	-5331
▁تفعله	-5332
▁رمضان	-5333
▁عادةً	-5334
▁عشرين	-5335
▁عمرها	-5336
▁عنوان	-5337
▁غرفتي	-5338
▁كيفاش	-5339
▁معرفة	-5340
▁Excuse	-5341
▁Friday	-5342
▁anthem	-5343
▁arrive	-5344
▁attack	-5345
▁castle	-5346
▁driver	-5347
▁filled	-5348
▁includ	-5349
▁intern	-5350
▁nation	-5351
▁soccer	-5352
▁sudden	-5353
▁terror	-5354
▁within	-5355
▁الأخرى	-5356
▁السّاد	-5357
▁الفريق	-5358
▁المجيء	-5359
▁دائمًا	-5360
▁مباشرة	-5361
▁ياباني	-5362
▁Spanish	-5363
▁accused	-5364
▁arguing	-5365
▁capital	-5366
▁divorce	-5367
▁illness	-5368
▁raining	-5369
▁support	-5370
▁walking	-5371
▁wedding	-5372
▁الأسئلة	-5373
▁السادسة	-5374
▁الفتيات	-5375
▁القاعدة	-5376
▁نيويورك	-5377
▁prepared	-5378
▁realized	-5379
▁vacation	-5380
▁بإمكاننا	-5381
▁pretended	-5382
▁surprised	-5383
▁Everything	-5384
▁disappeared	-5385
3.	-5386
ex	-5387
ij	-5388
جّ	-5389
dle	-5390
eep	-5391
ony	-5392
par	-5393
uff	-5394
yer	-5395
ئية	-5396
الب	-5397
حنة	-5398
خرى	-5399
راد	-5400
رها	-5401
رّب	-5402
سائ	-5403
ظام	-5404
ظيم	-5405
عتك	-5406
فاع	-5407
قاً	-5408
قته	-5409
قلت	-5410
لتك	-5411
ملا	-5412
ميل	-5413
ناس	-5414
نيا	-5415
وجه	-5416
وجي	-5417
وين	-5418
َان	-5419
ًّا	-5420
▁By	-5421
▁Em	-5422
▁Mu	-5423
▁إح	-5424
▁إع	-5425
▁خي	-5426
▁عق	-5427
▁فق	-5428
▁ون	-5429
▁ڨع	-5430
:30.	-5431
ails	-5432
aked	-5433
gest	-5434
oted	-5435
rage	-5436
ديني	-5437
ذاكر	-5438
رّضة	-5439
لتقي	-5440
لّمت	-5441
ميلي	-5442
يلاد	-5443
▁Mar	-5444
▁Mom	-5445
▁Put	-5446
▁Sal	-5447
▁Sha	-5448
▁Try	-5449
▁bra	-5450
▁bur	-5451
▁cow	-5452
▁dut	-5453
▁eng	-5454
▁fle	-5455
▁mir	-5456
▁pot	-5457
▁top	-5458
▁آتي	-5459
▁أعت	-5460
▁افت	-5461
▁انس	-5462
▁بدّ	-5463
▁بكم	-5464
▁بوا	-5465
▁حسا	-5466
▁سيّ	-5467
▁شكر	-5468
▁صبا	-5469
▁صبي	-5470
▁غسل	-5471
▁فرد	-5472
▁قدر	-5473
▁لهم	-5474
▁منت	-5475
▁يتص	-5476
▁يرى	-5477
▁ينا	-5478
ented	-5479
ledge	-5480
redit	-5481
سلامي	-5482
ّارته	-5483
▁Both	-5484
▁Shut	-5485
▁Stay	-5486
▁Then	-5487
▁boys	-5488
▁cous	-5489
▁educ	-5490
▁hasn	-5491
▁jump	-5492
▁poet	-5493
▁pull	-5494
▁suff	-5495
▁vers	-5496
▁أحبك	-5497
▁أذكر	-5498
▁أنّك	-5499
▁أهذا	-5500
▁أيّة	-5501
▁إننا	-5502
▁ابنة	-5503
▁البن	-5504
▁الغا	-5505
▁القم	-5506
▁المك	-5507
▁بارد	-5508
▁بالر	-5509
▁بصوت	-5510
▁بكلّ	-5511
▁تبكي	-5512
▁تترك	-5513
▁تحمل	-5514
▁تخرج	-5515
▁تعني	-5516
▁جاهز	-5517
▁جيبه	-5518
▁خمسة	-5519
▁رئيس	-5520
▁عمري	-5521
▁عيني	-5522
▁فهمت	-5523
▁قرّر	-5524
▁كلام	-5525
▁ماله	-5526
▁متأخ	-5527
▁مساء	-5528
▁مهمة	-5529
▁نعيش	-5530
▁والت	-5531
▁يجري	-5532
▁يحضر	-5533
▁يظهر	-5534
▁Allah	-5535
▁Betty	-5536
▁annoy	-5537
▁aware	-5538
▁check	-5539
▁climb	-5540
▁doors	-5541
▁doubt	-5542
▁funny	-5543
▁impro	-5544
▁mount	-5545
▁price	-5546
▁seven	-5547
▁state	-5548
▁takes	-5549
▁talks	-5550
▁tells	-5551
▁truck	-5552
▁using	-5553
▁weird	-5554
▁worst	-5555
▁أحدهم	-5556
▁أنّها	-5557
▁أولاد	-5558
▁الأول	-5559
▁الترك	-5560
▁الرأي	-5561
▁السبب	-5562
▁الفلم	-5563
▁المحل	-5564
▁المسؤ	-5565
▁باريس	-5566
▁بعضنا	-5567
▁بعيدا	-5568
▁بنفسه	-5569
▁تاريخ	-5570
▁تساعد	-5571
▁تستحق	-5572
▁تنتظر	-5573
▁خطيرة	-5574
▁رسائل	-5575
▁سأكون	-5576
▁عندنا	-5577
▁غاضبة	-5578
▁غرفته	-5579
▁كتابا	-5580
▁للتّو	-5581
▁مرحبا	-5582
▁موجود	-5583
▁يحاول	-5584
نجليزية	-5585
▁Forget	-5586
▁agreed	-5587
▁asleep	-5588
▁attend	-5589
▁begins	-5590
▁conver	-5591
▁dating	-5592
▁moving	-5593
▁native	-5594
▁wallet	-5595
▁أتتطلع	-5596
▁بالفعل	-5597
▁كثيراً	-5598
▁يتناول	-5599
▁Kabylie	-5600
▁climbed	-5601
▁dropped	-5602
▁members	-5603
▁noticed	-5604
▁refused	-5605
▁science	-5606
▁التفاحة	-5607
▁الدراجة	-5608
▁المجتمع	-5609
▁بإمكانه	-5610
▁complain	-5611
▁mistakes	-5612
▁painting	-5613
▁promised	-5614
▁remained	-5615
▁whatever	-5616
▁الإنترنت	-5617
▁الياباني	-5618
▁بالشّرطة	-5619
▁ambulance	-5620
▁pregnancy	-5621
▁relations	-5622
▁المعلومات	-5623
▁difference	-5624
▁بالأمازيغية	-5625
__	-5626
af	-5627
uk	-5628
xi	-5629
تق	-5630
ذة	-5631
صب	-5632
لن	-5633
▁Z	-5634
▁–	-5635
gth	-5636
had	-5637
izi	-5638
omm	-5639
أنت	-5640
ائد	-5641
ائط	-5642
بيت	-5643
جات	-5644
جّة	-5645
خول	-5646
دفع	-5647
راة	-5648
روب	-5649
شيد	-5650
صاص	-5651
صير	-5652
طيك	-5653
ظيف	-5654
عال	-5655
عجب	-5656
عين	-5657
فاة	-5658
ودا	-5659
وّل	-5660
ياح	-5661
ياع	-5662
َهُ	-5663
ُني	-5664
ُون	-5665
ْتُ	-5666
▁Ab	-5667
▁Ar	-5668
▁Sw	-5669
▁ju	-5670
▁wa	-5671
▁إب	-5672
▁جن	-5673
▁حض	-5674
▁حف	-5675
▁صد	-5676
▁فى	-5677
▁لف	-5678
▁مك	-5679
▁وس	-5680
anta	-5681
ened	-5682
head	-5683
oken	-5684
omen	-5685
sper	-5686
ters	-5687
uzou	-5688
حيرة	-5689
سافر	-5690
طيور	-5691
عارة	-5692
عتين	-5693
عليم	-5694
عينا	-5695
غيرة	-5696
وافذ	-5697
▁201	-5698
▁eff	-5699
▁fil	-5700
▁gay	-5701
▁hop	-5702
▁ign	-5703
▁jud	-5704
▁leg	-5705
▁sup	-5706
▁انف	-5707
▁ايه	-5708
▁بان	-5709
▁بجد	-5710
▁برا	-5711
▁برك	-5712
▁تسر	-5713
▁جدّ	-5714
▁جين	-5715
▁خال	-5716
▁زاد	-5717
▁زلت	-5718
▁سنت	-5719
▁سيف	-5720
▁شفت	-5721
▁فات	-5722
▁قات	-5723
▁قطع	-5724
▁كار	-5725
▁كُن	-5726
▁لذا	-5727
▁لكم	-5728
▁لكي	-5729
▁لله	-5730
▁مثي	-5731
▁مدى	-5732
▁نام	-5733
▁هرب	-5734
▁يجد	-5735
▁يقط	-5736
allow	-5737
ances	-5738
astic	-5739
light	-5740
ربيّة	-5741
قيقية	-5742
▁Bill	-5743
▁Call	-5744
▁Jane	-5745
▁Rami	-5746
▁Tizi	-5747
▁Well	-5748
▁West	-5749
▁bark	-5750
▁boat	-5751
▁held	-5752
▁hole	-5753
▁huge	-5754
▁join	-5755
▁lend	-5756
▁lied	-5757
▁line	-5758
▁rent	-5759
▁warm	-5760
▁woke	-5761
▁wood	-5762
▁wore	-5763
▁أدرس	-5764
▁أدري	-5765
▁أصغر	-5766
▁أقوم	-5767
▁إحدى	-5768
▁التص	-5769
▁الخي	-5770
▁الشع	-5771
▁العق	-5772
▁بابا	-5773
▁باغي	-5774
▁بالج	-5775
▁تشرب	-5776
▁تكتب	-5777
▁تمطر	-5778
▁تنام	-5779
▁جيّد	-5780
▁خيار	-5781
▁راهي	-5782
▁عطلة	-5783
▁عملت	-5784
▁كأسا	-5785
▁كلبا	-5786
▁كونت	-5787
▁لأنه	-5788
▁مالا	-5789
▁مجرد	-5790
▁هدية	-5791
▁وزّو	-5792
▁يهتم	-5793
▁يوما	-5794
idence	-5795
انويّة	-5796
▁Ouzou	-5797
▁above	-5798
▁along	-5799
▁catch	-5800
▁compr	-5801
▁drugs	-5802
▁equal	-5803
▁gives	-5804
▁juice	-5805
▁liter	-5806
▁natur	-5807
▁newsp	-5808
▁smoke	-5809
▁stood	-5810
▁sugar	-5811
▁trees	-5812
▁upset	-5813
▁أسنان	-5814
▁أشياء	-5815
▁أيضاً	-5816
▁إنسان	-5817
▁استمر	-5818
▁الأمس	-5819
▁الاعت	-5820
▁الخطة	-5821
▁السّا	-5822
▁اللعب	-5823
▁المحا	-5824
▁المشت	-5825
▁الملك	-5826
▁النها	-5827
▁النهر	-5828
▁جريمة	-5829
▁زيارة	-5830
▁سأبقى	-5831
▁صداقة	-5832
▁غرفتك	-5833
▁غريبة	-5834
▁فيديو	-5835
▁قادرا	-5836
▁قاموس	-5837
▁كثيرة	-5838
▁لديهم	-5839
▁منطقة	-5840
▁هاتفي	-5841
▁واجبا	-5842
▁واحدا	-5843
ference	-5844
stitute	-5845
▁Canada	-5846
▁argued	-5847
▁butter	-5848
▁cancer	-5849
▁caused	-5850
▁cheese	-5851
▁couple	-5852
▁dipped	-5853
▁drinks	-5854
▁entire	-5855
▁lasted	-5856
▁lawyer	-5857
▁market	-5858
▁myster	-5859
▁thinks	-5860
▁أعطاني	-5861
▁أمريكي	-5862
▁الأرجح	-5863
▁الثلاث	-5864
▁الخاصة	-5865
▁الزواج	-5866
▁الصغير	-5867
▁المقبل	-5868
▁باللغة	-5869
▁تريدين	-5870
▁شرعيّة	-5871
▁كتاباً	-5872
▁لتناول	-5873
▁مدرّسا	-5874
▁مفاتيح	-5875
مازيغيّة	-5876
▁Germany	-5877
▁Welcome	-5878
▁cooking	-5879
▁special	-5880
▁treated	-5881
▁الأغنية	-5882
▁العربيه	-5883
▁actually	-5884
▁borrowed	-5885
▁innocent	-5886
▁involved	-5887
▁disappoin	-5888
▁principal	-5889
▁somewhere	-5890
▁appreciate	-5891
▁Palestinians	-5892
.“	-5893
?!	-5894
ji	-5895
og	-5896
بط	-5897
ذى	-5898
َّ	-5899
ُه	-5900
ْت	-5901
ْس	-5902
ْك	-5903
▁!	-5904
▁8	-5905
Yes	-5906
acy	-5907
aka	-5908
apt	-5909
cri	-5910
cts	-5911
gle	-5912
mad	-5913
oof	-5914
oul	-5915
rit	-5916
tom	-5917
بائ	-5918
جيب	-5919
دته	-5920
ذية	-5921
زير	-5922
صمة	-5923
صيل	-5924
طرت	-5925
طور	-5926
عاد	-5927
قاف	-5928
كية	-5929
لاص	-5930
ملك	-5931
مين	-5932
نعت	-5933
همة	-5934
واك	-5935
وتر	-5936
يمن	-5937
َنْ	-5938
ّاه	-5939
▁10	-5940
▁Re	-5941
▁ce	-5942
▁er	-5943
▁إط	-5944
▁سف	-5945
▁سك	-5946
▁سل	-5947
▁سُ	-5948
▁صر	-5949
▁صع	-5950
▁ظل	-5951
▁عض	-5952
▁فس	-5953
▁قض	-5954
▁قم	-5955
▁نَ	-5956
ards	-5957
empt	-5958
fied	-5959
ilty	-5960
ines	-5961
king	-5962
lace	-5963
stem	-5964
ؤبّد	-5965
درجة	-5966
ريقي	-5967
زيرة	-5968
ساطة	-5969
سطين	-5970
غيير	-5971
فكّر	-5972
ليمة	-5973
ندوق	-5974
وجود	-5975
ولاد	-5976
▁Che	-5977
▁Dad	-5978
▁bas	-5979
▁ben	-5980
▁enc	-5981
▁esc	-5982
▁fre	-5983
▁ice	-5984
▁maj	-5985
▁nor	-5986
▁sex	-5987
▁أطف	-5988
▁أما	-5989
▁إست	-5990
▁إيه	-5991
▁بيل	-5992
▁تسب	-5993
▁تكل	-5994
▁ثمن	-5995
▁جئت	-5996
▁جلب	-5997
▁جلس	-5998
▁خسر	-5999
▁ذكي	-6000
▁زرت	-6001
▁ستة	-6002
▁سمح	-6003
▁صال	-6004
▁فصل	-6005
▁فين	-6006
▁قمت	-6007
▁لرؤ	-6008
▁محظ	-6009
▁مفا	-6010
▁نُق	-6011
▁هاذ	-6012
▁وحي	-6013
▁وسط	-6014
▁وقف	-6015
▁وَا	-6016
cious	-6017
icted	-6018
ralia	-6019
riage	-6020
جنبية	-6021
▁Bank	-6022
▁Keep	-6023
▁aunt	-6024
▁lake	-6025
▁moon	-6026
▁nose	-6027
▁page	-6028
▁pool	-6029
▁prof	-6030
▁taxi	-6031
▁till	-6032
▁أتيت	-6033
▁أحمق	-6034
▁أصدق	-6035
▁أفكر	-6036
▁أكلت	-6037
▁أمّه	-6038
▁أنظر	-6039
▁إسمي	-6040
▁اترك	-6041
▁الإن	-6042
▁التح	-6043
▁القص	-6044
▁اللا	-6045
▁بالخ	-6046
▁بالص	-6047
▁بلاد	-6048
▁تدخل	-6049
▁تسمع	-6050
▁تعطي	-6051
▁تفكر	-6052
▁تكره	-6053
▁حالا	-6054
▁حقيب	-6055
▁رجال	-6056
▁شديد	-6057
▁عملك	-6058
▁عمله	-6059
▁عملي	-6060
▁عنده	-6061
▁قلبي	-6062
▁كتبت	-6063
▁كندا	-6064
▁لنفس	-6065
▁محطة	-6066
▁مريض	-6067
▁يأخذ	-6068
▁يبلغ	-6069
▁يموت	-6070
colate	-6071
laimed	-6072
uation	-6073
جليزية	-6074
ليزيّة	-6075
▁Leave	-6076
▁Satur	-6077
▁allow	-6078
▁calls	-6079
▁cross	-6080
▁extra	-6081
▁guess	-6082
▁local	-6083
▁separ	-6084
▁shirt	-6085
▁smart	-6086
▁taste	-6087
▁worse	-6088
▁أثناء	-6089
▁إطلاق	-6090
▁إيجاد	-6091
▁اتصلت	-6092
▁الباص	-6093
▁الفرق	-6094
▁المسا	-6095
▁بالرّ	-6096
▁بسامي	-6097
▁تحاول	-6098
▁جيّدا	-6099
▁جيّدة	-6100
▁دراسة	-6101
▁دولار	-6102
▁رانيش	-6103
▁زوجتي	-6104
▁عندها	-6105
▁عيادة	-6106
▁فستان	-6107
▁متزوج	-6108
▁مرتين	-6109
▁مكتبي	-6110
▁ممنوع	-6111
▁منزلك	-6112
▁نائما	-6113
▁ينتهي	-6114
▁يواعد	-6115
▁broken	-6116
▁credit	-6117
▁direct	-6118
▁dreams	-6119
▁drives	-6120
▁guilty	-6121
▁memory	-6122
▁passed	-6123
▁placed	-6124
▁planet	-6125
▁poison	-6126
▁rushed	-6127
▁seemed	-6128
▁silent	-6129
▁simple	-6130
▁single	-6131
▁spoken	-6132
▁sports	-6133
▁though	-6134
▁threat	-6135
▁weight	-6136
▁أتساءل	-6137
▁أوروبا	-6138
▁اجتماع	-6139
▁استعمل	-6140
▁استمرّ	-6141
▁الأحمر	-6142
▁المتجر	-6143
▁الموسي	-6144
▁تعجبني	-6145
▁تقريبا	-6146
▁سيارتك	-6147
▁مرحباً	-6148
▁ملابسه	-6149
▁calling	-6150
▁century	-6151
▁million	-6152
▁natural	-6153
▁survive	-6154
▁suspect	-6155
▁الأخيرة	-6156
▁التاريخ	-6157
▁الطريقة	-6158
▁الطّريق	-6159
▁العاشرة	-6160
▁القديمة	-6161
▁المؤبّد	-6162
▁المسألة	-6163
▁المسيحي	-6164
▁المفتاح	-6165
▁النّساء	-6166
▁بالسّجن	-6167
▁مدرّسنا	-6168
▁مساعدتي	-6169
▁Saturday	-6170
▁appeared	-6171
▁attended	-6172
▁baseball	-6173
▁confused	-6174
▁consider	-6175
▁listened	-6176
▁terrible	-6177
▁traveled	-6178
▁الرّسالة	-6179
▁يتخاصمان	-6180
▁Australia	-6181
▁Sometimes	-6182
▁apologize	-6183
▁chocolate	-6184
▁expecting	-6185
▁extremely	-6186
▁happiness	-6187
▁intention	-6188
▁wonderful	-6189
▁الألمانية	-6190
▁themselves	-6191
▁translated	-6192
▁understands	-6193
▁relationship	-6194
▁responsibility	-6195
8.	-6196
99	-6197
حص	-6198
رۆ	-6199
سد	-6200
سع	-6201
شل	-6202
ظف	-6203
غط	-6204
َذ	-6205
ُ.	-6206
ِف	-6207
ّز	-6208
َّ	-6209
ْن	-6210
پۆ	-6211
▁5	-6212
▁?	-6213
ale	-6214
cks	-6215
eor	-6216
ham	-6217
ocr	-6218
oid	-6219
omp	-6220
ope	-6221
ots	-6222
oun	-6223
rap	-6224
rup	-6225
ser	-6226
sic	-6227
ابت	-6228
برة	-6229
بنى	-6230
بول	-6231
جلة	-6232
جّل	-6233
حاق	-6234
حيح	-6235
حيط	-6236
خلع	-6237
راف	-6238
ريب	-6239
ريح	-6240
رّي	-6241
علك	-6242
عني	-6243
غرق	-6244
فرد	-6245
فعت	-6246
قام	-6247
لّق	-6248
ناق	-6249
هاز	-6250
وضى	-6251
ولن	-6252
ونك	-6253
وير	-6254
ِين	-6255
▁Ad	-6256
▁Oh	-6257
▁ow	-6258
▁دم	-6259
▁سخ	-6260
▁سع	-6261
▁لخ	-6262
▁مب	-6263
▁نه	-6264
▁وب	-6265
anna	-6266
eter	-6267
hada	-6268
ises	-6269
leas	-6270
lier	-6271
rodu	-6272
yond	-6273
امنة	-6274
جاجة	-6275
حتاج	-6276
سيّة	-6277
صلاح	-6278
غيّر	-6279
فيّة	-6280
لفزي	-6281
ماية	-6282
واية	-6283
وجّه	-6284
ونها	-6285
▁Has	-6286
▁cal	-6287
▁dam	-6288
▁den	-6289
▁emb	-6290
▁eye	-6291
▁fac	-6292
▁fif	-6293
▁fla	-6294
▁squ	-6295
▁tot	-6296
▁أرج	-6297
▁أطل	-6298
▁إسم	-6299
▁إيط	-6300
▁بام	-6301
▁تقع	-6302
▁جور	-6303
▁حاس	-6304
▁حدّ	-6305
▁ذرا	-6306
▁راغ	-6307
▁سهل	-6308
▁شاه	-6309
▁صفع	-6310
▁صور	-6311
▁ضحك	-6312
▁طعم	-6313
▁عما	-6314
▁عَل	-6315
▁غضب	-6316
▁قيد	-6317
▁لرب	-6318
▁للخ	-6319
▁للد	-6320
▁للي	-6321
▁مطل	-6322
▁نصف	-6323
▁ومن	-6324
▁يتم	-6325
▁يده	-6326
antly	-6327
conom	-6328
ering	-6329
gress	-6330
ified	-6331
istic	-6332
راليا	-6333
ضيّات	-6334
قابلة	-6335
▁Brit	-6336
▁Face	-6337
▁Geor	-6338
▁Kate	-6339
▁amaz	-6340
▁desp	-6341
▁fair	-6342
▁farm	-6343
▁hous	-6344
▁lies	-6345
▁mach	-6346
▁main	-6347
▁norm	-6348
▁pred	-6349
▁rice	-6350
▁seat	-6351
▁self	-6352
▁stom	-6353
▁text	-6354
▁thin	-6355
▁vill	-6356
▁wake	-6357
▁wash	-6358
▁ways	-6359
▁weak	-6360
▁webs	-6361
▁أجمل	-6362
▁أحسن	-6363
▁أسوأ	-6364
▁أقدر	-6365
▁أكيد	-6366
▁أمّي	-6367
▁أيها	-6368
▁الجن	-6369
▁الحك	-6370
▁المل	-6371
▁باية	-6372
▁تبقى	-6373
▁تجاه	-6374
▁تسبح	-6375
▁تطلب	-6376
▁تنسى	-6377
▁جواز	-6378
▁رامي	-6379
▁ركوب	-6380
▁طفلا	-6381
▁عادت	-6382
▁غيّر	-6383
▁قاله	-6384
▁قامت	-6385
▁قرأت	-6386
▁كامل	-6387
▁كلنا	-6388
▁كلها	-6389
▁كمان	-6390
▁لغات	-6391
▁نساء	-6392
▁وقعت	-6393
▁يبقى	-6394
▁يسبح	-6395
▁يسير	-6396
▁يقود	-6397
▁ينام	-6398
fortun	-6399
ically	-6400
▁Child	-6401
▁Emily	-6402
▁bored	-6403
▁breat	-6404
▁cards	-6405
▁chose	-6406
▁delic	-6407
▁feels	-6408
▁fixed	-6409
▁judge	-6410
▁keeps	-6411
▁knock	-6412
▁lying	-6413
▁scene	-6414
▁shape	-6415
▁wanna	-6416
▁weeks	-6417
▁whose	-6418
▁آنذاك	-6419
▁أبداً	-6420
▁أخبرك	-6421
▁أقراص	-6422
▁إسعاف	-6423
▁ابتسم	-6424
▁احتاج	-6425
▁ارتكب	-6426
▁اعترف	-6427
▁الاتّ	-6428
▁الحين	-6429
▁الخام	-6430
▁الخبز	-6431
▁الخطر	-6432
▁الضّف	-6433
▁الظهر	-6434
▁القبض	-6435
▁القسم	-6436
▁الكرة	-6437
▁المنت	-6438
▁بالفر	-6439
▁تجاهل	-6440
▁تحدّث	-6441
▁تزوّج	-6442
▁حقيقة	-6443
▁حوالي	-6444
▁دعينا	-6445
▁رجاءً	-6446
▁ساعتي	-6447
▁ستمطر	-6448
▁صغيرا	-6449
▁طالبة	-6450
▁عاصمة	-6451
▁كيفية	-6452
▁لمدّة	-6453
▁لنذهب	-6454
▁محطّة	-6455
▁يوميا	-6456
لكتروني	-6457
▁Intern	-6458
▁School	-6459
▁asking	-6460
▁boring	-6461
▁bridge	-6462
▁burned	-6463
▁center	-6464
▁choose	-6465
▁decide	-6466
▁econom	-6467
▁failed	-6468
▁intell	-6469
▁invite	-6470
▁island	-6471
▁orange	-6472
▁public	-6473
▁raised	-6474
▁smiled	-6475
▁system	-6476
▁thanks	-6477
▁thirty	-6478
▁winter	-6479
▁الحائط	-6480
▁الرجال	-6481
▁السؤال	-6482
▁الشركة	-6483
▁الطائر	-6484
▁الطيور	-6485
▁العجوز	-6486
▁العلاج	-6487
▁العودة	-6488
▁الغداء	-6489
▁القدوم	-6490
▁اللّغة	-6491
▁بحياته	-6492
▁بسهولة	-6493
▁تغيّرت	-6494
▁قابلته	-6495
▁لزيارة	-6496
▁مستحيل	-6497
▁Italian	-6498
▁belongs	-6499
▁comfort	-6500
▁created	-6501
▁earlier	-6502
▁private	-6503
▁shahada	-6504
▁telling	-6505
▁الأخطاء	-6506
▁الأشجار	-6507
▁الأوراق	-6508
▁التقرير	-6509
▁الكنيسة	-6510
▁المشاكل	-6511
▁حيوانات	-6512
▁فلسطيني	-6513
▁Children	-6514
▁Egyptian	-6515
▁attacked	-6516
▁cheating	-6517
▁complete	-6518
▁followed	-6519
▁mistaken	-6520
▁planning	-6521
▁released	-6522
▁supposed	-6523
▁السيارات	-6524
▁الغربيّة	-6525
▁بالتأكيد	-6526
▁بالمؤبّد	-6527
▁Palestine	-6528
▁carefully	-6529
▁condition	-6530
▁knowledge	-6531
▁president	-6532
▁responsible	-6533
▁بالإنجليزية	-6534
▁international	-6535
5.	-6536
It	-6537
dy	-6538
fl	-6539
tt	-6540
أس	-6541
حض	-6542
خن	-6543
دأ	-6544
طأ	-6545
غو	-6546
مد	-6547
َأ	-6548
ّش	-6549
arr	-6550
asy	-6551
chi	-6552
cum	-6553
ili	-6554
ior	-6555
itz	-6556
key	-6557
rop	-6558
roy	-6559
uts	-6560
ارق	-6561
انه	-6562
باك	-6563
بقة	-6564
بيض	-6565
بّا	-6566
تاء	-6567
تاد	-6568
تان	-6569
تمر	-6570
تمع	-6571
حضر	-6572
ديك	-6573
دّس	-6574
ذار	-6575
راب	-6576
راش	-6577
رسة	-6578
رنا	-6579
روف	-6580
سات	-6581
سين	-6582
صبح	-6583
ضعة	-6584
قون	-6585
قيل	-6586
كمل	-6587
لاش	-6588
لاّ	-6589
لوس	-6590
ليف	-6591
لّى	-6592
ميص	-6593
نزل	-6594
هود	-6595
ودي	-6596
ويس	-6597
ويل	-6598
يين	-6599
يّا	-6600
َاء	-6601
َتَ	-6602
ِمَ	-6603
▁Gr	-6604
▁أذ	-6605
▁اج	-6606
▁جب	-6607
▁جث	-6608
▁فُ	-6609
▁مض	-6610
▁نع	-6611
▁نْ	-6612
▁وف	-6613
▁١٩	-6614
ache	-6615
aily	-6616
akir	-6617
aven	-6618
ghed	-6619
iche	-6620
itar	-6621
ives	-6622
like	-6623
ploy	-6624
rate	-6625
اموس	-6626
امين	-6627
درّس	-6628
ذكّر	-6629
ذياع	-6630
رحلة	-6631
ريّا	-6632
شروع	-6633
صابة	-6634
فاية	-6635
قترح	-6636
قطار	-6637
وايج	-6638
ويّا	-6639
ينما	-6640
▁Cle	-6641
▁Eat	-6642
▁aut	-6643
▁cir	-6644
▁dra	-6645
▁hij	-6646
▁lay	-6647
▁map	-6648
▁mis	-6649
▁tal	-6650
▁unc	-6651
▁آخذ	-6652
▁أحس	-6653
▁أحي	-6654
▁أمل	-6655
▁إذن	-6656
▁بدت	-6657
▁تصل	-6658
▁تعت	-6659
▁تقا	-6660
▁تلو	-6661
▁جار	-6662
▁حان	-6663
▁حجز	-6664
▁سوى	-6665
▁سُر	-6666
▁شاب	-6667
▁شجا	-6668
▁عدم	-6669
▁فظي	-6670
▁فلا	-6671
▁فهو	-6672
▁قدم	-6673
▁قطة	-6674
▁كسر	-6675
▁مذه	-6676
▁معد	-6677
▁وشك	-6678
▁يرا	-6679
▁يسي	-6680
apers	-6681
hamed	-6682
inary	-6683
izing	-6684
orses	-6685
ortun	-6686
riger	-6687
urity	-6688
usion	-6689
velop	-6690
اميرا	-6691
نسيّة	-6692
▁Aren	-6693
▁Help	-6694
▁beha	-6695
▁coat	-6696
▁cool	-6697
▁cust	-6698
▁dise	-6699
▁duty	-6700
▁feed	-6701
▁fing	-6702
▁flew	-6703
▁hero	-6704
▁shar	-6705
▁sour	-6706
▁spec	-6707
▁stam	-6708
▁star	-6709
▁أرني	-6710
▁أضعت	-6711
▁أعجب	-6712
▁أعدت	-6713
▁أعدّ	-6714
▁أقصد	-6715
▁أنهى	-6716
▁أودّ	-6717
▁أولا	-6718
▁اسمح	-6719
▁اسمك	-6720
▁الأر	-6721
▁الأط	-6722
▁الجد	-6723
▁الزّ	-6724
▁الست	-6725
▁بتوم	-6726
▁بزاف	-6727
▁تسأل	-6728
▁تغير	-6729
▁تمام	-6730
▁توفي	-6731
▁حدود	-6732
▁حفلة	-6733
▁دروس	-6734
▁رجلا	-6735
▁زالت	-6736
▁سائح	-6737
▁شربت	-6738
▁عمره	-6739
▁قدمي	-6740
▁قررت	-6741
▁لاحظ	-6742
▁محفظ	-6743
▁معجب	-6744
▁مليح	-6745
▁نخرج	-6746
▁نقول	-6747
▁وأنت	-6748
▁والم	-6749
▁وكأن	-6750
▁ولّا	-6751
▁يبكي	-6752
▁يجعل	-6753
▁يصدق	-6754
▁يعزف	-6755
▁ينسى	-6756
▁ينظر	-6757
ealous	-6758
mother	-6759
▁2:30.	-6760
▁Bakir	-6761
▁Great	-6762
▁Speak	-6763
▁Women	-6764
▁artic	-6765
▁blind	-6766
▁daily	-6767
▁disco	-6768
▁heavy	-6769
▁ideas	-6770
▁issue	-6771
▁major	-6772
▁occup	-6773
▁photo	-6774
▁piece	-6775
▁popul	-6776
▁أتريد	-6777
▁أرادت	-6778
▁أشكرك	-6779
▁البحث	-6780
▁التّح	-6781
▁الجوع	-6782
▁الحمل	-6783
▁الرّا	-6784
▁السبت	-6785
▁الشوك	-6786
▁الشّي	-6787
▁الصبي	-6788
▁الطقس	-6789
▁القمر	-6790
▁المرض	-6791
▁المسر	-6792
▁انتبه	-6793
▁انتهى	-6794
▁بطاقة	-6795
▁بمفرد	-6796
▁تعتمد	-6797
▁سعداء	-6798
▁سياحي	-6799
▁سيذهب	-6800
▁صحيحا	-6801
▁فعلته	-6802
▁للعمل	-6803
▁لماري	-6804
▁مجتمع	-6805
▁مدرست	-6806
▁وصلنا	-6807
▁يتّصل	-6808
▁يستطع	-6809
initely	-6810
itation	-6811
licated	-6812
viously	-6813
▁Jewish	-6814
▁Mother	-6815
▁beyond	-6816
▁bigger	-6817
▁bottom	-6818
▁dishes	-6819
▁lesson	-6820
▁proper	-6821
▁tastes	-6822
▁videos	-6823
▁washed	-6824
▁yellow	-6825
▁استعار	-6826
▁الرّيا	-6827
▁الطلبة	-6828
▁القرآن	-6829
▁المصرف	-6830
▁المعلم	-6831
▁انتظار	-6832
▁بالبرد	-6833
▁بالكاد	-6834
▁مفتوحة	-6835
▁ممرّضة	-6836
▁موسيقى	-6837
▁يريدون	-6838
▁يعيشون	-6839
▁Someone	-6840
▁barking	-6841
▁cleaned	-6842
▁develop	-6843
▁dressed	-6844
▁introdu	-6845
▁justice	-6846
▁laughed	-6847
▁staying	-6848
▁stories	-6849
▁studies	-6850
▁younger	-6851
▁الأشخاص	-6852
▁الأولاد	-6853
▁البحيرة	-6854
▁الحاسوب	-6855
▁الدّواء	-6856
▁القراءة	-6857
▁المؤتمر	-6858
▁للشّرطة	-6859
▁لمساعدة	-6860
rigerator	-6861
▁Facebook	-6862
▁Tomorrow	-6863
▁anywhere	-6864
▁believes	-6865
▁deserves	-6866
▁marriage	-6867
▁passport	-6868
▁security	-6869
▁suddenly	-6870
▁الاستماع	-6871
▁الرّسائل	-6872
▁المستقبل	-6873
▁Americans	-6874
▁delicious	-6875
▁education	-6876
▁necessary	-6877
▁newspaper	-6878
▁ourselves	-6879
▁situation	-6880
▁بالعربيّة	-6881
▁conference	-6882
▁understood	-6883
▁university	-6884
▁complicated	-6885
▁grandmother	-6886
▁disappointed	-6887
▁investigation	-6888
No	-6889
ru	-6890
sy	-6891
ئج	-6892
ئق	-6893
اج	-6894
اذ	-6895
صط	-6896
طط	-6897
طو	-6898
قق	-6899
َو	-6900
ِح	-6901
ْو	-6902
ape	-6903
gel	-6904
its	-6905
mas	-6906
now	-6907
oon	-6908
ron	-6909
sed	-6910
ses	-6911
xic	-6912
أجر	-6913
الف	-6914
امب	-6915
برا	-6916
تهُ	-6917
تير	-6918
ثار	-6919
ثنا	-6920
ثّل	-6921
جاج	-6922
جاز	-6923
جاه	-6924
حان	-6925
حدة	-6926
خفض	-6927
ذلة	-6928
رفا	-6929
ركب	-6930
سعة	-6931
سون	-6932
ضبط	-6933
طرح	-6934
طية	-6935
فاف	-6936
فاً	-6937
فعة	-6938
قوم	-6939
قية	-6940
لاع	-6941
لان	-6942
وتك	-6943
وضة	-6944
ويا	-6945
َلَ	-6946
ُمْ	-6947
ِبُ	-6948
ّاس	-6949
ّسة	-6950
ْتَ	-6951
▁18	-6952
▁Ah	-6953
▁De	-6954
▁Os	-6955
▁Sa	-6956
▁ir	-6957
▁آت	-6958
▁حُ	-6959
▁خج	-6960
▁ذو	-6961
▁شه	-6962
▁ضح	-6963
▁طا	-6964
▁طل	-6965
▁عُ	-6966
▁فإ	-6967
▁نز	-6968
0.99	-6969
ases	-6970
atch	-6971
case	-6972
cean	-6973
chie	-6974
gram	-6975
haps	-6976
ilar	-6977
imin	-6978
onds	-6979
oses	-6980
resh	-6981
ural	-6982
view	-6983
ائلة	-6984
الثة	-6985
اليش	-6986
انها	-6987
بران	-6988
راتي	-6989
رارة	-6990
ريات	-6991
ريدة	-6992
سبوك	-6993
عامل	-6994
فلام	-6995
ماذا	-6996
نامج	-6997
نبور	-6998
نياً	-6999
ولية	-7000
ونني	-7001
▁Car	-7002
▁Nor	-7003
▁Per	-7004
▁Qur	-7005
▁bat	-7006
▁dip	-7007
▁fav	-7008
▁hom	-7009
▁imm	-7010
▁lad	-7011
▁shy	-7012
▁ste	-7013
▁yes	-7014
▁أبد	-7015
▁ألي	-7016
▁أوي	-7017
▁أية	-7018
▁بأس	-7019
▁تجد	-7020
▁تعب	-7021
▁تنا	-7022
▁تنج	-7023
▁جام	-7024
▁جاي	-7025
▁جزي	-7026
▁حسب	-7027
▁حفظ	-7028
▁حفل	-7029
▁حكم	-7030
▁حمل	-7031
▁دار	-7032
▁رئي	-7033
▁ربح	-7034
▁رسم	-7035
▁روح	-7036
▁زمن	-7037
▁سام	-7038
▁صاح	-7039
▁صار	-7040
▁صعد	-7041
▁طرف	-7042
▁ظنّ	-7043
▁عزف	-7044
▁فمك	-7045
▁فنج	-7046
▁فيك	-7047
▁قرب	-7048
▁قوة	-7049
▁كده	-7050
▁لحم	-7051
▁لفت	-7052
▁للق	-7053
▁متح	-7054
▁متش	-7055
▁مرّ	-7056
▁مشا	-7057
▁مول	-7058
▁نقل	-7059
▁هام	-7060
▁هىَ	-7061
▁يتع	-7062
agger	-7063
asing	-7064
ching	-7065
ciety	-7066
icide	-7067
rayed	-7068
وانين	-7069
ّهادة	-7070
▁Only	-7071
▁Show	-7072
▁alar	-7073
▁bull	-7074
▁capt	-7075
▁coma	-7076
▁cute	-7077
▁ears	-7078
▁fant	-7079
▁gold	-7080
▁host	-7081
▁lift	-7082
▁repe	-7083
▁roof	-7084
▁susp	-7085
▁tong	-7086
▁أبيض	-7087
▁أحمر	-7088
▁أربع	-7089
▁أسود	-7090
▁أشرب	-7091
▁أعاد	-7092
▁أعلى	-7093
▁أقلّ	-7094
▁ألست	-7095
▁ألّا	-7096
▁أنتم	-7097
▁أنكَ	-7098
▁أوقف	-7099
▁إليّ	-7100
▁الإف	-7101
▁الاف	-7102
▁الجب	-7103
▁الحل	-7104
▁الخش	-7105
▁الذّ	-7106
▁السن	-7107
▁السو	-7108
▁القل	-7109
▁الوظ	-7110
▁باكر	-7111
▁بناء	-7112
▁بيتك	-7113
▁تأخر	-7114
▁تروح	-7115
▁تقبل	-7116
▁تلمس	-7117
▁جلست	-7118
▁حقوق	-7119
▁ربطة	-7120
▁رسال	-7121
▁رفاق	-7122
▁سافر	-7123
▁سامح	-7124
▁سنين	-7125
▁سهلا	-7126
▁شجرة	-7127
▁شحال	-7128
▁صنعت	-7129
▁عادي	-7130
▁عارف	-7131
▁قادم	-7132
▁كسرت	-7133
▁لعبة	-7134
▁لكني	-7135
▁مركز	-7136
▁ممتا	-7137
▁مِنْ	-7138
▁والح	-7139
▁والن	-7140
▁وحيد	-7141
▁وقتك	-7142
▁ولدت	-7143
▁يحمل	-7144
▁يطلق	-7145
▁يغير	-7146
▁يقدر	-7147
ffered	-7148
inated	-7149
سبانيا	-7150
سبانية	-7151
▁Italy	-7152
▁Osaka	-7153
▁achie	-7154
▁blame	-7155
▁dying	-7156
▁email	-7157
▁event	-7158
▁faith	-7159
▁fault	-7160
▁fifty	-7161
▁gradu	-7162
▁hijab	-7163
▁hurts	-7164
▁incre	-7165
▁liber	-7166
▁satis	-7167
▁sight	-7168
▁toler	-7169
▁verse	-7170
▁wound	-7171
▁أحببت	-7172
▁أمطرت	-7173
▁أوافق	-7174
▁أُعجب	-7175
▁اسمها	-7176
▁الإعت	-7177
▁البدا	-7178
▁التقط	-7179
▁الصوت	-7180
▁العلم	-7181
▁القصة	-7182
▁القطة	-7183
▁الموا	-7184
▁انتهت	-7185
▁بجانب	-7186
▁بقيّة	-7187
▁بيننا	-7188
▁تحبني	-7189
▁تريده	-7190
▁تفضّل	-7191
▁جديدا	-7192
▁جميعا	-7193
▁حمراء	-7194
▁دايمن	-7195
▁رائعا	-7196
▁راغبا	-7197
▁سأفعل	-7198
▁ستذهب	-7199
▁ستعود	-7200
▁طريقي	-7201
▁طويلا	-7202
▁عالية	-7203
▁قديمة	-7204
▁كلّها	-7205
▁مازال	-7206
▁مبارك	-7207
▁مجنون	-7208
▁مكانك	-7209
▁نسيان	-7210
▁هاتفه	-7211
▁واجبي	-7212
▁يقوله	-7213
hematic	-7214
▁Should	-7215
▁flower	-7216
▁forced	-7217
▁horses	-7218
▁joking	-7219
▁mental	-7220
▁mirror	-7221
▁nearly	-7222
▁nobody	-7223
▁punish	-7224
▁repair	-7225
▁singer	-7226
▁sleepy	-7227
▁sounds	-7228
▁spring	-7229
▁أخيراً	-7230
▁أساعدك	-7231
▁أستخدم	-7232
▁اتّصلت	-7233
▁الأخضر	-7234
▁الأكثر	-7235
▁الخلفي	-7236
▁الشارع	-7237
▁الشاطئ	-7238
▁الغذاء	-7239
▁القرار	-7240
▁الكبير	-7241
▁المتعة	-7242
▁المحيط	-7243
▁المضرب	-7244
▁المطعم	-7245
▁النشيد	-7246
▁انتباه	-7247
▁تتكلّم	-7248
▁تريدني	-7249
▁سعيداً	-7250
▁غرفتها	-7251
▁لساعات	-7252
▁مشغولة	-7253
▁يتحدّث	-7254
▁يتعلّم	-7255
▁يعجبني	-7256
▁يمكنها	-7257
▁England	-7258
▁concent	-7259
▁depends	-7260
▁destroy	-7261
▁details	-7262
▁exagger	-7263
▁hitting	-7264
▁kidding	-7265
▁killing	-7266
▁knocked	-7267
▁meaning	-7268
▁medical	-7269
▁reached	-7270
▁receive	-7271
▁regular	-7272
▁replied	-7273
▁request	-7274
▁results	-7275
▁similar	-7276
▁tickets	-7277
▁trapped	-7278
▁washing	-7279
▁website	-7280
▁worried	-7281
▁ألمانيا	-7282
▁التعليم	-7283
▁الحادثة	-7284
▁الرياضة	-7285
▁السعادة	-7286
▁الصغيرة	-7287
▁الضّفّة	-7288
▁القاموس	-7289
▁القبائل	-7290
▁القمامة	-7291
▁المشروع	-7292
▁مسيحيّا	-7293
▁نظّارات	-7294
▁Algerian	-7295
▁admitted	-7296
▁expected	-7297
▁laughing	-7298
▁opportun	-7299
▁solution	-7300
▁suffered	-7301
▁teaching	-7302
▁wondered	-7303
▁الأمريكي	-7304
▁الدّكتور	-7305
▁السّباحة	-7306
▁Yesterday	-7307
▁childhood	-7308
▁classroom	-7309
▁computers	-7310
▁explained	-7311
▁happening	-7312
▁بالشّهادة	-7313
▁forgetting	-7314
▁substitute	-7315
▁الإنجليزيّة	-7316
▁refrigerator	-7317
1.	-7318
za	-7319
آة	-7320
شك	-7321
ضم	-7322
عى	-7323
َج	-7324
▁4	-7325
The	-7326
ask	-7327
auc	-7328
cha	-7329
ded	-7330
eed	-7331
ets	-7332
gan	-7333
gic	-7334
hak	-7335
igs	-7336
kay	-7337
ker	-7338
lay	-7339
oms	-7340
pen	-7341
ume	-7342
ung	-7343
ئمة	-7344
ابع	-7345
ارض	-7346
افي	-7347
برى	-7348
تِي	-7349
جلت	-7350
حسن	-7351
خلص	-7352
دني	-7353
ذرة	-7354
راج	-7355
رّا	-7356
رّد	-7357
ساس	-7358
سطة	-7359
سلم	-7360
سمي	-7361
شان	-7362
طاع	-7363
طرة	-7364
ظرك	-7365
ظّف	-7366
غلق	-7367
لمت	-7368
ماس	-7369
مّد	-7370
هوم	-7371
وله	-7372
وّا	-7373
وّت	-7374
يفا	-7375
َّه	-7376
▁Am	-7377
▁Ne	-7378
▁Ob	-7379
▁Wr	-7380
▁bi	-7381
▁إت	-7382
▁إض	-7383
▁اق	-7384
▁تض	-7385
▁ذه	-7386
▁عب	-7387
▁عي	-7388
▁كذ	-7389
▁نض	-7390
▁وص	-7391
▁وُ	-7392
What	-7393
aded	-7394
ager	-7395
aled	-7396
irds	-7397
itiz	-7398
mail	-7399
male	-7400
obby	-7401
ords	-7402
riel	-7403
time	-7404
year	-7405
انتا	-7406
بادل	-7407
بارك	-7408
تابة	-7409
تيجة	-7410
جتما	-7411
رتنا	-7412
ريطة	-7413
شارة	-7414
عتقد	-7415
فسنا	-7416
لمني	-7417
لينا	-7418
ميلة	-7419
واكه	-7420
وقّف	-7421
ولوج	-7422
ونيو	-7423
▁Cor	-7424
▁Har	-7425
▁Mam	-7426
▁Sit	-7427
▁ble	-7428
▁cra	-7429
▁dry	-7430
▁fur	-7431
▁lic	-7432
▁lim	-7433
▁oil	-7434
▁piz	-7435
▁psy	-7436
▁sig	-7437
▁uni	-7438
▁var	-7439
▁أضع	-7440
▁أعم	-7441
▁أمض	-7442
▁إيا	-7443
▁انك	-7444
▁بتح	-7445
▁بتي	-7446
▁بطل	-7447
▁بمع	-7448
▁بهم	-7449
▁تلا	-7450
▁تنت	-7451
▁حضر	-7452
▁راض	-7453
▁راو	-7454
▁ركض	-7455
▁روا	-7456
▁زار	-7457
▁ستب	-7458
▁سيُ	-7459
▁شغل	-7460
▁صنا	-7461
▁صنع	-7462
▁عنق	-7463
▁عين	-7464
▁غيب	-7465
▁فرا	-7466
▁فرح	-7467
▁قائ	-7468
▁قاع	-7469
▁قلق	-7470
▁قوي	-7471
▁كَم	-7472
▁للج	-7473
▁للو	-7474
▁لنت	-7475
▁مئة	-7476
▁متن	-7477
▁مدم	-7478
▁ممي	-7479
▁نرى	-7480
▁نكن	-7481
▁وأن	-7482
▁واض	-7483
▁وعي	-7484
▁وهي	-7485
▁يصب	-7486
ables	-7487
iling	-7488
ining	-7489
ional	-7490
itive	-7491
ments	-7492
raged	-7493
باراة	-7494
ريكية	-7495
▁June	-7496
▁Kore	-7497
▁Russ	-7498
▁Turk	-7499
▁beat	-7500
▁dare	-7501
▁dire	-7502
▁drew	-7503
▁dump	-7504
▁exce	-7505
▁fauc	-7506
▁film	-7507
▁goal	-7508
▁hung	-7509
▁inse	-7510
▁lots	-7511
▁meal	-7512
▁nine	-7513
▁pair	-7514
▁rare	-7515
▁risk	-7516
▁rule	-7517
▁ship	-7518
▁soup	-7519
▁trad	-7520
▁أبكر	-7521
▁أبيه	-7522
▁أحبه	-7523
▁أختك	-7524
▁أدخل	-7525
▁أرغب	-7526
▁أصيب	-7527
▁أطلب	-7528
▁أعود	-7529
▁ألعب	-7530
▁أنهم	-7531
▁إنّه	-7532
▁ادخل	-7533
▁الإي	-7534
▁البد	-7535
▁الشر	-7536
▁المث	-7537
▁المُ	-7538
▁انتي	-7539
▁بأنك	-7540
▁بشدة	-7541
▁بصّح	-7542
▁بُني	-7543
▁تجعل	-7544
▁ترجم	-7545
▁تشعر	-7546
▁تفقد	-7547
▁تقود	-7548
▁ثمّة	-7549
▁حسنا	-7550
▁حصّة	-7551
▁رأسه	-7552
▁رفضت	-7553
▁زوجة	-7554
▁سبعة	-7555
▁سراح	-7556
▁شوية	-7557
▁عاما	-7558
▁عندو	-7559
▁غبيا	-7560
▁فاهم	-7561
▁فتحت	-7562
▁فخور	-7563
▁فقير	-7564
▁قاتل	-7565
▁قاعد	-7566
▁قطاع	-7567
▁كادت	-7568
▁لغتي	-7569
▁ماتت	-7570
▁مجمو	-7571
▁محتر	-7572
▁معهم	-7573
▁منهم	-7574
▁موقف	-7575
▁نروح	-7576
▁نعمل	-7577
▁واضح	-7578
▁والع	-7579
▁وفاة	-7580
▁يزور	-7581
▁يضحك	-7582
▁يقطن	-7583
▁يمشي	-7584
arrass	-7585
omeday	-7586
برانتو	-7587
▁Fanta	-7588
▁Quran	-7589
▁Spain	-7590
▁Think	-7591
▁admit	-7592
▁ahead	-7593
▁alarm	-7594
▁carry	-7595
▁citiz	-7596
▁court	-7597
▁cream	-7598
▁forty	-7599
▁fresh	-7600
▁habit	-7601
▁hobby	-7602
▁names	-7603
▁neare	-7604
▁offer	-7605
▁offic	-7606
▁pleas	-7607
▁reach	-7608
▁stone	-7609
▁veget	-7610
▁أبناء	-7611
▁أتعرف	-7612
▁أتكلم	-7613
▁أسئلة	-7614
▁أطلقت	-7615
▁أيّام	-7616
▁إليها	-7617
▁اشترت	-7618
▁اعتنق	-7619
▁البرت	-7620
▁البيض	-7621
▁الجزء	-7622
▁الحفل	-7623
▁الدرس	-7624
▁السهل	-7625
▁القتل	-7626
▁المفت	-7627
▁المقد	-7628
▁الوحي	-7629
▁بعيدة	-7630
▁تأخرت	-7631
▁تتذكر	-7632
▁حديقة	-7633
▁حقيبة	-7634
▁دروسا	-7635
▁رجلاً	-7636
▁سأتصل	-7637
▁سأعود	-7638
▁سليمة	-7639
▁شاحنة	-7640
▁صباحا	-7641
▁صحيحة	-7642
▁صديقة	-7643
▁عائلة	-7644
▁غادرت	-7645
▁غالبا	-7646
▁غنياً	-7647
▁قرابة	-7648
▁كبيرا	-7649
▁كلمات	-7650
▁لدرجة	-7651
▁لوحده	-7652
▁مبكرا	-7653
▁مثيرة	-7654
▁هنالك	-7655
▁يحتوي	-7656
▁يفكّر	-7657
▁يمارس	-7658
▁يونيو	-7659
anation	-7660
sperant	-7661
▁Doctor	-7662
▁Father	-7663
▁Salima	-7664
▁absent	-7665
▁across	-7666
▁acting	-7667
▁animal	-7668
▁bother	-7669
▁charac	-7670
▁charge	-7671
▁effort	-7672
▁faster	-7673
▁female	-7674
▁kicked	-7675
▁losing	-7676
▁prayer	-7677
▁pulled	-7678
▁pushed	-7679
▁recomm	-7680
▁regard	-7681
▁tongue	-7682
▁أحيانا	-7683
▁الأكبر	-7684
▁الأوّل	-7685
▁البريد	-7686
▁التقيت	-7687
▁الحريق	-7688
▁الدّين	-7689
▁الطابق	-7690
▁الطلاب	-7691
▁القلعة	-7692
▁الكبرى	-7693
▁المبنى	-7694
▁المساء	-7695
▁المياه	-7696
▁النجاح	-7697
▁النّوم	-7698
▁الواحد	-7699
▁بالطبع	-7700
▁بواسطة	-7701
▁تستخدم	-7702
▁تستعمل	-7703
▁تعلّمت	-7704
▁دراجتي	-7705
▁ذاهبون	-7706
▁فلسطين	-7707
▁للذهاب	-7708
▁مسلمين	-7709
▁مهتمّا	-7710
▁موجودة	-7711
▁واحداً	-7712
▁British	-7713
▁Perhaps	-7714
▁advance	-7715
▁advised	-7716
▁attempt	-7717
▁checked	-7718
▁courage	-7719
▁covered	-7720
▁culture	-7721
▁express	-7722
▁forgets	-7723
▁greeted	-7724
▁hearing	-7725
▁injured	-7726
▁instead	-7727
▁jealous	-7728
▁machine	-7729
▁mention	-7730
▁pleased	-7731
▁politic	-7732
▁suicide	-7733
▁trusted	-7734
▁village	-7735
▁إيطاليا	-7736
▁الأفلام	-7737
▁التغيير	-7738
▁الثانية	-7739
▁الخلفية	-7740
▁الدراسة	-7741
▁السفينة	-7742
▁السينما	-7743
▁الصينية	-7744
▁العشرين	-7745
▁القيادة	-7746
▁الوظيفة	-7747
▁معلومات	-7748
▁accepted	-7749
▁annoying	-7750
▁deserved	-7751
▁intellig	-7752
▁recently	-7753
▁upstairs	-7754
▁الإسرائي	-7755
▁المباراة	-7756
▁المغادرة	-7757
▁Christmas	-7758
▁concerned	-7759
▁converted	-7760
▁embarrass	-7761
▁following	-7762
▁forgotten	-7763
▁mountains	-7764
▁religions	-7765
▁السّيّارة	-7766
fortunately	-7767
▁protection	-7768
▁recognized	-7769
▁terrorists	-7770
▁explanation	-7771
▁opportunity	-7772
▁translation	-7773
▁الأمازيغيّة	-7774
"،	-7775
io	-7776
my	-7777
؟!	-7778
ئب	-7779
جح	-7780
دب	-7781
زد	-7782
فن	-7783
ِ؟	-7784
ِق	-7785
ْه	-7786
▁,	-7787
▁7	-7788
You	-7789
ama	-7790
dom	-7791
ery	-7792
ode	-7793
olf	-7794
ppy	-7795
rie	-7796
rog	-7797
uri	-7798
yle	-7799
ئدة	-7800
اءا	-7801
اضة	-7802
الو	-7803
امن	-7804
انع	-7805
برت	-7806
بنا	-7807
بني	-7808
بيذ	-7809
بيّ	-7810
تات	-7811
تبع	-7812
تلت	-7813
ثور	-7814
جبه	-7815
جنب	-7816
جهد	-7817
حني	-7818
دخن	-7819
دعى	-7820
دمت	-7821
ذان	-7822
ران	-7823
راه	-7824
رجل	-7825
رحل	-7826
رفض	-7827
ريل	-7828
زلج	-7829
سيد	-7830
شفت	-7831
صيح	-7832
ضيع	-7833
طحب	-7834
طعت	-7835
على	-7836
فهم	-7837
قاش	-7838
قضي	-7839
قين	-7840
كام	-7841
لاة	-7842
لبس	-7843
لته	-7844
ليد	-7845
وام	-7846
ورو	-7847
وكو	-7848
ولف	-7849
ونة	-7850
وّة	-7851
وّر	-7852
وّز	-7853
ياد	-7854
يره	-7855
َال	-7856
َلْ	-7857
ِرَ	-7858
▁24	-7859
▁96	-7860
▁Li	-7861
▁Tw	-7862
▁ep	-7863
▁إج	-7864
▁إد	-7865
▁سق	-7866
▁فش	-7867
▁فع	-7868
▁فك	-7869
▁قي	-7870
▁كث	-7871
▁مئ	-7872
▁مِ	-7873
▁هُ	-7874
▁وث	-7875
..."	-7876
aila	-7877
bage	-7878
elve	-7879
ency	-7880
eper	-7881
esus	-7882
gery	-7883
icip	-7884
irit	-7885
ivil	-7886
امية	-7887
تحان	-7888
حكّم	-7889
خصوص	-7890
دخول	-7891
ديرو	-7892
راته	-7893
رارا	-7894
زانة	-7895
ساقط	-7896
ساكا	-7897
ساوي	-7898
شرطة	-7899
غلاق	-7900
قدّر	-7901
كّان	-7902
لاجة	-7903
لتها	-7904
مّام	-7905
نتها	-7906
هورة	-7907
واسي	-7908
ورية	-7909
ولّي	-7910
▁100	-7911
▁Cal	-7912
▁Dri	-7913
▁Say	-7914
▁Tor	-7915
▁ast	-7916
▁cur	-7917
▁due	-7918
▁est	-7919
▁gas	-7920
▁jam	-7921
▁kil	-7922
▁mot	-7923
▁rap	-7924
▁ski	-7925
▁tor	-7926
▁tri	-7927
▁ver	-7928
▁web	-7929
▁wet	-7930
▁yen	-7931
▁أرض	-7932
▁أطي	-7933
▁أُن	-7934
▁إما	-7935
▁اذا	-7936
▁اْل	-7937
▁باك	-7938
▁بحب	-7939
▁بحث	-7940
▁بدى	-7941
▁بشر	-7942
▁بكى	-7943
▁بني	-7944
▁تأك	-7945
▁تتأ	-7946
▁تعط	-7947
▁جرا	-7948
▁جمع	-7949
▁جمل	-7950
▁حاف	-7951
▁حام	-7952
▁حلّ	-7953
▁خدع	-7954
▁دان	-7955
▁ردّ	-7956
▁ساب	-7957
▁سرع	-7958
▁سكر	-7959
▁سمي	-7960
▁سيد	-7961
▁شعب	-7962
▁صام	-7963
▁عان	-7964
▁عزي	-7965
▁فال	-7966
▁فرّ	-7967
▁قصد	-7968
▁كشف	-7969
▁كله	-7970
▁كلي	-7971
▁لأج	-7972
▁لتم	-7973
▁لكَ	-7974
▁للط	-7975
▁ليك	-7976
▁مأل	-7977
▁مبل	-7978
▁محت	-7979
▁محل	-7980
▁مرب	-7981
▁مزد	-7982
▁مسب	-7983
▁مشت	-7984
▁معج	-7985
▁مفي	-7986
▁ميت	-7987
▁مَا	-7988
▁مَن	-7989
▁نزل	-7990
▁وسي	-7991
▁ولم	-7992
▁يبد	-7993
▁يرج	-7994
anced	-7995
anges	-7996
epend	-7997
essed	-7998
hysic	-7999
idays	-8000
ising	-8001
ouder	-8002
raphy	-8003
uries	-8004
useum	-8005
uthor	-8006
رهابي	-8007
قراطي	-8008
كتئاب	-8009
ناسبة	-8010
ونوبي	-8011
ونيّة	-8012
▁Gree	-8013
▁King	-8014
▁Last	-8015
▁Open	-8016
▁Pass	-8017
▁Pres	-8018
▁Tony	-8019
▁Yitz	-8020
▁bare	-8021
▁earn	-8022
▁emer	-8023
▁evil	-8024
▁flag	-8025
▁gets	-8026
▁hadn	-8027
▁hide	-8028
▁lock	-8029
▁lone	-8030
▁owns	-8031
▁prov	-8032
▁race	-8033
▁rely	-8034
▁rese	-8035
▁runs	-8036
▁sand	-8037
▁seek	-8038
▁shad	-8039
▁sons	-8040
▁step	-8041
▁task	-8042
▁term	-8043
▁view	-8044
▁أتحب	-8045
▁أجرة	-8046
▁أشعل	-8047
▁أصبت	-8048
▁ألقى	-8049
▁أمضي	-8050
▁إلاّ	-8051
▁اختب	-8052
▁افعل	-8053
▁اكون	-8054
▁التع	-8055
▁الجي	-8056
▁الدي	-8057
▁العص	-8058
▁النج	-8059
▁بالد	-8060
▁بالض	-8061
▁بالف	-8062
▁بحثت	-8063
▁بدلا	-8064
▁بريط	-8065
▁بضعة	-8066
▁بعمل	-8067
▁تسمح	-8068
▁تعلي	-8069
▁تغلق	-8070
▁تمشي	-8071
▁تموت	-8072
▁جاءت	-8073
▁جثّة	-8074
▁جنسي	-8075
▁جهاز	-8076
▁جورج	-8077
▁حرية	-8078
▁دواء	-8079
▁روحي	-8080
▁زملا	-8081
▁سآخذ	-8082
▁سهلة	-8083
▁عامل	-8084
▁عظيم	-8085
▁علاج	-8086
▁غاية	-8087
▁فريق	-8088
▁فورا	-8089
▁قراء	-8090
▁قطار	-8091
▁قوله	-8092
▁كعكة	-8093
▁لأجل	-8094
▁لبعض	-8095
▁لسنا	-8096
▁لكنّ	-8097
▁للرّ	-8098
▁لولا	-8099
▁ليلي	-8100
▁محام	-8101
▁محلّ	-8102
▁مدين	-8103
▁ممتع	-8104
▁منّا	-8105
▁نائم	-8106
▁نظرت	-8107
▁نعلم	-8108
▁ننسى	-8109
▁وحدك	-8110
▁وحده	-8111
▁ياني	-8112
▁يدفع	-8113
▁يركض	-8114
▁يسمح	-8115
▁يفتح	-8116
▁ژامي	-8117
jected	-8118
keeper	-8119
pected	-8120
though	-8121
ولوجيا	-8122
▁3,000	-8123
▁Afric	-8124
▁Birds	-8125
▁Jesus	-8126
▁Since	-8127
▁Watch	-8128
▁acted	-8129
▁among	-8130
▁angel	-8131
▁argue	-8132
▁benef	-8133
▁brave	-8134
▁capac	-8135
▁cares	-8136
▁debts	-8137
▁exerc	-8138
▁final	-8139
▁grass	-8140
▁honey	-8141
▁magaz	-8142
▁match	-8143
▁meant	-8144
▁organ	-8145
▁persu	-8146
▁pizza	-8147
▁rains	-8148
▁reply	-8149
▁space	-8150
▁straw	-8151
▁stuff	-8152
▁super	-8153
▁أتوقع	-8154
▁أحيان	-8155
▁أريدك	-8156
▁أعرفه	-8157
▁أفضّل	-8158
▁أنتظر	-8159
▁أيهما	-8160
▁أُريد	-8161
▁إسحاق	-8162
▁اختفت	-8163
▁اقترب	-8164
▁اكتشف	-8165
▁الأمل	-8166
▁الاقت	-8167
▁البرد	-8168
▁البشر	-8169
▁الجسر	-8170
▁الخوف	-8171
▁الرقص	-8172
▁الصور	-8173
▁الصّح	-8174
▁الفائ	-8175
▁الفاك	-8176
▁الفصل	-8177
▁القلب	-8178
▁اللون	-8179
▁الهند	-8180
▁بأكمل	-8181
▁بالدّ	-8182
▁بخصوص	-8183
▁بِتِي	-8184
▁تتّصل	-8185
▁تحدثت	-8186
▁تحقيق	-8187
▁تستمع	-8188
▁تشتري	-8189
▁تظاهر	-8190
▁توجّه	-8191
▁حياتك	-8192
▁ديالك	-8193
▁سوداء	-8194
▁سُرقت	-8195
▁شكلها	-8196
▁صاحبة	-8197
▁عليهم	-8198
▁فرنسي	-8199
▁كريهة	-8200
▁لأنها	-8201
▁لربما	-8202
▁للأبد	-8203
▁لوحدي	-8204
▁متعبا	-8205
▁محظوظ	-8206
▁مريضا	-8207
▁مريضة	-8208
▁معروف	-8209
▁مفاتي	-8210
▁مليئة	-8211
▁منتصف	-8212
▁نظيفة	-8213
▁واصلت	-8214
▁وسادة	-8215
▁يعتبر	-8216
ailable	-8217
ichever	-8218
▁admire	-8219
▁afford	-8220
▁assist	-8221
▁border	-8222
▁crimes	-8223
▁crimin	-8224
▁demand	-8225
▁detect	-8226
▁engine	-8227
▁faucet	-8228
▁fought	-8229
▁garage	-8230
▁ground	-8231
▁guitar	-8232
▁harder	-8233
▁headed	-8234
▁houses	-8235
▁likely	-8236
▁middle	-8237
▁museum	-8238
▁normal	-8239
▁player	-8240
▁resign	-8241
▁ruined	-8242
▁saving	-8243
▁scient	-8244
▁shower	-8245
▁starts	-8246
▁temper	-8247
▁theory	-8248
▁victim	-8249
▁voices	-8250
▁writes	-8251
▁أستعير	-8252
▁أسنانك	-8253
▁أوساكا	-8254
▁إرهابي	-8255
▁إيميلي	-8256
▁اختيار	-8257
▁البكاء	-8258
▁الجزائ	-8259
▁الحساب	-8260
▁الحمام	-8261
▁الراحة	-8262
▁الربيع	-8263
▁الرّيف	-8264
▁العلوم	-8265
▁النقود	-8266
▁الهواء	-8267
▁الواضح	-8268
▁اهتمام	-8269
▁بالرغم	-8270
▁بالضبط	-8271
▁بطلاقة	-8272
▁رأيتها	-8273
▁ساعتين	-8274
▁للوصول	-8275
▁مجموعة	-8276
▁مدرّسة	-8277
▁مغادرة	-8278
▁ممارسة	-8279
▁والديك	-8280
▁يعرفون	-8281
hematics	-8282
speranto	-8283
ulations	-8284
▁Without	-8285
▁Yitzhak	-8286
▁ability	-8287
▁amazing	-8288
▁article	-8289
▁careful	-8290
▁changes	-8291
▁convers	-8292
▁cousins	-8293
▁devoted	-8294
▁earthqu	-8295
▁factory	-8296
▁fishing	-8297
▁forever	-8298
▁fucking	-8299
▁further	-8300
▁garbage	-8301
▁helping	-8302
▁largest	-8303
▁license	-8304
▁neither	-8305
▁pretend	-8306
▁profess	-8307
▁program	-8308
▁prostit	-8309
▁surgery	-8310
▁wasting	-8311
▁أخبرتني	-8312
▁استعارة	-8313
▁استيقظت	-8314
▁الأبواب	-8315
▁الأزهار	-8316
▁البداية	-8317
▁التذاكر	-8318
▁التفكير	-8319
▁الثامنة	-8320
▁الجزيرة	-8321
▁السابعة	-8322
▁الضّجيج	-8323
▁الطّابق	-8324
▁الطّلاق	-8325
▁القائمة	-8326
▁القادمة	-8327
▁المفضّل	-8328
▁الميلاد	-8329
▁النهاية	-8330
▁بالحياة	-8331
▁بالقطار	-8332
▁سيّارته	-8333
▁للأطفال	-8334
▁مثاليّة	-8335
▁مشغولاً	-8336
▁Internet	-8337
▁bathroom	-8338
▁clothing	-8339
▁continue	-8340
▁director	-8341
▁evidence	-8342
▁feelings	-8343
▁friendly	-8344
▁greatest	-8345
▁kindness	-8346
▁murdered	-8347
▁opinions	-8348
▁practice	-8349
▁progress	-8350
▁wherever	-8351
▁الإسلامي	-8352
▁البرتقال	-8353
▁الشوكولا	-8354
▁المدرّسة	-8355
▁بالحقيقة	-8356
▁بالسيارة	-8357
▁علاباليش	-8358
▁للمساعدة	-8359
▁لمساعدتك	-8360
▁President	-8361
▁apartment	-8362
▁available	-8363
▁certainly	-8364
▁daughters	-8365
▁destroyed	-8366
▁including	-8367
▁respected	-8368
▁satisfied	-8369
▁sentenced	-8370
▁whichever	-8371
▁الأمريكية	-8372
▁بالفرنسية	-8373
▁Christians	-8374
▁definitely	-8375
▁friendship	-8376
▁population	-8377
▁shopkeeper	-8378
▁الثّانويّة	-8379
▁comfortable	-8380
eg	-8381
gi	-8382
ka	-8383
te	-8384
ze	-8385
ؤه	-8386
اس	-8387
رش	-8388
سى	-8389
شق	-8390
طت	-8391
ظل	-8392
نَ	-8393
هه	-8394
وط	-8395
َه	-8396
ُب	-8397
ْف	-8398
But	-8399
agn	-8400
ara	-8401
asc	-8402
cus	-8403
hab	-8404
ibi	-8405
ief	-8406
iny	-8407
mel	-8408
omb	-8409
rid	-8410
sen	-8411
ton	-8412
urb	-8413
zen	-8414
ئاً	-8415
ئها	-8416
انس	-8417
انك	-8418
باق	-8419
بون	-8420
تكم	-8421
حلة	-8422
دّل	-8423
راخ	-8424
زين	-8425
ستن	-8426
سيا	-8427
سيك	-8428
شاء	-8429
شتم	-8430
شعر	-8431
طرد	-8432
طرّ	-8433
ظات	-8434
ظرت	-8435
عاب	-8436
عدا	-8437
عدم	-8438
فقت	-8439
فلت	-8440
فيد	-8441
قاذ	-8442
لقت	-8443
لقي	-8444
لكم	-8445
مرض	-8446
مري	-8447
مّم	-8448
نات	-8449
نته	-8450
وجب	-8451
وجة	-8452
َكَ	-8453
َمْ	-8454
ُهُ	-8455
ُوا	-8456
ِيت	-8457
ِيد	-8458
▁15	-8459
▁25	-8460
▁En	-8461
▁Te	-8462
▁إف	-8463
▁اث	-8464
▁حك	-8465
▁زر	-8466
▁صغ	-8467
▁ضخ	-8468
▁طُ	-8469
▁ظه	-8470
▁فأ	-8471
▁كِ	-8472
▁مْ	-8473
▁نط	-8474
▁نن	-8475
▁نُ	-8476
▁هت	-8477
arah	-8478
gers	-8479
hess	-8480
ield	-8481
inda	-8482
ldom	-8483
lebr	-8484
liar	-8485
meri	-8486
ober	-8487
osal	-8488
rary	-8489
rian	-8490
rupt	-8491
teen	-8492
vere	-8493
الات	-8494
الما	-8495
امحه	-8496
باري	-8497
ثابة	-8498
جانب	-8499
روري	-8500
ريني	-8501
طرنج	-8502
عطيك	-8503
فاجئ	-8504
قارب	-8505
كانش	-8506
لتزم	-8507
متها	-8508
مرار	-8509
مكّن	-8510
هارة	-8511
هودي	-8512
وارع	-8513
يتها	-8514
ينية	-8515
َقَد	-8516
ُونَ	-8517
▁192	-8518
▁Ben	-8519
▁Lau	-8520
▁Lin	-8521
▁Man	-8522
▁err	-8523
▁gam	-8524
▁noo	-8525
▁opt	-8526
▁pet	-8527
▁typ	-8528
▁und	-8529
▁val	-8530
▁vol	-8531
▁wis	-8532
▁أبا	-8533
▁أثق	-8534
▁أخت	-8535
▁أمه	-8536
▁أُر	-8537
▁إدم	-8538
▁إلی	-8539
▁بأي	-8540
▁بدآ	-8541
▁بقى	-8542
▁بلغ	-8543
▁تات	-8544
▁تبي	-8545
▁تحس	-8546
▁تدر	-8547
▁تور	-8548
▁ثمّ	-8549
▁جبل	-8550
▁جرى	-8551
▁حاب	-8552
▁حذا	-8553
▁حرب	-8554
▁خات	-8555
▁خطة	-8556
▁ديم	-8557
▁دين	-8558
▁رخص	-8559
▁سجن	-8560
▁سعر	-8561
▁سوق	-8562
▁ضوء	-8563
▁طرد	-8564
▁عدا	-8565
▁عود	-8566
▁فرق	-8567
▁فلم	-8568
▁فور	-8569
▁قرر	-8570
▁قصص	-8571
▁قضى	-8572
▁قطّ	-8573
▁قفز	-8574
▁كاش	-8575
▁كاف	-8576
▁كفّ	-8577
▁لبس	-8578
▁لعل	-8579
▁للص	-8580
▁مار	-8581
▁ماي	-8582
▁مصا	-8583
▁مضى	-8584
▁مكس	-8585
▁نطق	-8586
▁نمت	-8587
▁وزن	-8588
▁وكل	-8589
▁يثق	-8590
▁يخت	-8591
▁يدك	-8592
▁يقع	-8593
acket	-8594
arily	-8595
hange	-8596
heart	-8597
icken	-8598
iriel	-8599
issed	-8600
ittee	-8601
olute	-8602
orter	-8603
اتورة	-8604
انوية	-8605
ثلاثة	-8606
جليزي	-8607
خابات	-8608
متحان	-8609
ّهيرة	-8610
▁Each	-8611
▁Figs	-8612
▁More	-8613
▁Moul	-8614
▁None	-8615
▁Year	-8616
▁arms	-8617
▁beer	-8618
▁crow	-8619
▁danc	-8620
▁date	-8621
▁diet	-8622
▁feet	-8623
▁gate	-8624
▁imag	-8625
▁kick	-8626
▁mass	-8627
▁ones	-8628
▁rock	-8629
▁salt	-8630
▁serv	-8631
▁skin	-8632
▁slap	-8633
▁tort	-8634
▁wolf	-8635
▁أباه	-8636
▁أبقى	-8637
▁أخاف	-8638
▁أساس	-8639
▁أصعب	-8640
▁أعدك	-8641
▁أقود	-8642
▁أنام	-8643
▁أنوي	-8644
▁اجلس	-8645
▁استُ	-8646
▁افتح	-8647
▁اقول	-8648
▁الأل	-8649
▁الحص	-8650
▁الحظ	-8651
▁الدر	-8652
▁الدم	-8653
▁الغي	-8654
▁المأ	-8655
▁الها	-8656
▁اليس	-8657
▁بانت	-8658
▁بتحب	-8659
▁بتلك	-8660
▁تحضر	-8661
▁تحكم	-8662
▁تدفع	-8663
▁تدور	-8664
▁تربح	-8665
▁ترغب	-8666
▁تشاج	-8667
▁تقصد	-8668
▁تنسَ	-8669
▁تنوي	-8670
▁حامل	-8671
▁حتّا	-8672
▁حساب	-8673
▁حصلت	-8674
▁حلوة	-8675
▁خلفه	-8676
▁درجة	-8677
▁درّا	-8678
▁دفعت	-8679
▁رحلة	-8680
▁سفرك	-8681
▁سواء	-8682
▁شباب	-8683
▁ضجّة	-8684
▁طلاب	-8685
▁عدّة	-8686
▁عرفت	-8687
▁عصير	-8688
▁عمتي	-8689
▁غضون	-8690
▁فإنك	-8691
▁فترة	-8692
▁قتلت	-8693
▁قديم	-8694
▁قهوة	-8695
▁كنتَ	-8696
▁كنّا	-8697
▁كويس	-8698
▁كيفَ	-8699
▁لأني	-8700
▁لالا	-8701
▁لسبب	-8702
▁لشخص	-8703
▁لغته	-8704
▁للأم	-8705
▁للسّ	-8706
▁للنّ	-8707
▁مادة	-8708
▁مازل	-8709
▁مثلك	-8710
▁مثير	-8711
▁مدرس	-8712
▁مذنب	-8713
▁مسجد	-8714
▁مشوّ	-8715
▁مصري	-8716
▁مضحك	-8717
▁معال	-8718
▁معلم	-8719
▁نادي	-8720
▁نفعل	-8721
▁نلعب	-8722
▁هاجم	-8723
▁هواي	-8724
▁وافق	-8725
▁واقف	-8726
▁وتوم	-8727
▁وجهه	-8728
▁يدخل	-8729
▁يديك	-8730
▁يرجى	-8731
▁يرقص	-8732
▁يصرخ	-8733
▁يصعب	-8734
▁يضرب	-8735
▁يفقد	-8736
hammad	-8737
ission	-8738
ording	-8739
ourite	-8740
urious	-8741
▁Bible	-8742
▁Check	-8743
▁Linda	-8744
▁Mexic	-8745
▁Peter	-8746
▁Sarah	-8747
▁anger	-8748
▁awake	-8749
▁block	-8750
▁board	-8751
▁bunch	-8752
▁cheap	-8753
▁chess	-8754
▁civil	-8755
▁encou	-8756
▁enter	-8757
▁frequ	-8758
▁guest	-8759
▁indis	-8760
▁occur	-8761
▁poker	-8762
▁round	-8763
▁sharp	-8764
▁shock	-8765
▁shout	-8766
▁sixty	-8767
▁stren	-8768
▁tears	-8769
▁tooth	-8770
▁أبدًا	-8771
▁أحلام	-8772
▁أخبرت	-8773
▁أرجوك	-8774
▁أرسلت	-8775
▁أساعد	-8776
▁أعمال	-8777
▁أهلاً	-8778
▁أينما	-8779
▁إخبار	-8780
▁إطفاء	-8781
▁إنهاء	-8782
▁إيقاف	-8783
▁ابنها	-8784
▁ارتدى	-8785
▁اشتري	-8786
▁افتقد	-8787
▁الاحت	-8788
▁الاخت	-8789
▁التقي	-8790
▁التّص	-8791
▁الجام	-8792
▁الجيد	-8793
▁الخمر	-8794
▁الرغم	-8795
▁السكر	-8796
▁العاه	-8797
▁العدو	-8798
▁العشب	-8799
▁العمر	-8800
▁الفور	-8801
▁القلم	-8802
▁المرء	-8803
▁المشي	-8804
▁المفق	-8805
▁المهم	-8806
▁النظر	-8807
▁النوع	-8808
▁الوضع	-8809
▁باردا	-8810
▁بالكل	-8811
▁بداية	-8812
▁جالسا	-8813
▁حبّيت	-8814
▁حوايج	-8815
▁حيوان	-8816
▁ذهبنا	-8817
▁رأيتك	-8818
▁زوجها	-8819
▁سألته	-8820
▁ستفعل	-8821
▁سكّان	-8822
▁سيحصل	-8823
▁شعرها	-8824
▁صديقك	-8825
▁طبيبة	-8826
▁فعلها	-8827
▁قصيرة	-8828
▁كأساً	-8829
▁كاملة	-8830
▁لأنني	-8831
▁لذيذة	-8832
▁لشراء	-8833
▁لكنها	-8834
▁للأكل	-8835
▁لنفسه	-8836
▁مرّات	-8837
▁مقابل	-8838
▁مليون	-8839
▁مولود	-8840
▁نتائج	-8841
▁نُقِل	-8842
▁هاتفك	-8843
▁وعلاش	-8844
▁يتوقف	-8845
▁يحبها	-8846
▁يصدّق	-8847
ization	-8848
▁advent	-8849
▁anyway	-8850
▁battle	-8851
▁celebr	-8852
▁critic	-8853
▁deeply	-8854
▁descri	-8855
▁employ	-8856
▁excell	-8857
▁explos	-8858
▁hardly	-8859
▁incred	-8860
▁indust	-8861
▁itself	-8862
▁kissed	-8863
▁larger	-8864
▁lights	-8865
▁lonely	-8866
▁parked	-8867
▁regret	-8868
▁reward	-8869
▁salary	-8870
▁seldom	-8871
▁spends	-8872
▁states	-8873
▁strang	-8874
▁suspic	-8875
▁twelve	-8876
▁warned	-8877
▁اكتئاب	-8878
▁الأخير	-8879
▁الجلوس	-8880
▁الحرية	-8881
▁الحساء	-8882
▁الحقوق	-8883
▁الخريف	-8884
▁الدخول	-8885
▁الصحيح	-8886
▁العلوي	-8887
▁الفوضى	-8888
▁القاعة	-8889
▁القميص	-8890
▁اللّيل	-8891
▁المسبح	-8892
▁النجدة	-8893
▁الواقع	-8894
▁بالأمر	-8895
▁برنامج	-8896
▁بمثابة	-8897
▁تتناول	-8898
▁تستيقظ	-8899
▁عائلتي	-8900
▁للمنزل	-8901
▁محترما	-8902
▁مشهورة	-8903
▁منزلها	-8904
▁وظيفته	-8905
▁يتحرّك	-8906
▁يقولون	-8907
▁يمكنكِ	-8908
▁Correct	-8909
▁Israeli	-8910
▁Mammeri	-8911
▁Mouloud	-8912
▁ashamed	-8913
▁biology	-8914
▁carried	-8915
▁clearly	-8916
▁concert	-8917
▁enemies	-8918
▁fantasy	-8919
▁managed	-8920
▁nearest	-8921
▁numbers	-8922
▁ordered	-8923
▁plastic	-8924
▁quality	-8925
▁smaller	-8926
▁society	-8927
▁someday	-8928
▁swallow	-8929
▁theater	-8930
▁yelling	-8931
▁استعمال	-8932
▁الأحيان	-8933
▁الأخبار	-8934
▁الأسعار	-8935
▁الإفطار	-8936
▁الاثنين	-8937
▁الثالثة	-8938
▁الحقيبة	-8939
▁الحكومة	-8940
▁الحمّام	-8941
▁الحيوان	-8942
▁الرواية	-8943
▁السّادس	-8944
▁الصنبور	-8945
▁الصّوتي	-8946
▁العبرية	-8947
▁العدالة	-8948
▁العلاقة	-8949
▁الفواكه	-8950
▁المسؤول	-8951
▁المناسب	-8952
▁النّادي	-8953
▁الوحيدة	-8954
▁بالدخول	-8955
▁للسباحة	-8956
▁مسيحيّة	-8957
▁Muhammad	-8958
▁Whatever	-8959
▁absolute	-8960
▁betrayed	-8961
▁consists	-8962
▁election	-8963
▁familiar	-8964
▁headache	-8965
▁incident	-8966
▁patients	-8967
▁proposal	-8968
▁reported	-8969
▁survived	-8970
▁watermel	-8971
▁أستراليا	-8972
▁الاكتئاب	-8973
▁التّحقيق	-8974
▁الدّراسة	-8975
▁الرياضية	-8976
▁السّادسة	-8977
▁الظّهيرة	-8978
▁الفاتورة	-8979
▁المستحيل	-8980
▁المشتركة	-8981
▁للإهتمام	-8982
▁Esperanto	-8983
▁committee	-8984
▁depressed	-8985
▁expressed	-8986
▁favourite	-8987
▁neighbors	-8988
▁performed	-8989
▁policeman	-8990
▁remembers	-8991
▁downstairs	-8992
▁vegetables	-8993
▁الإلكتروني	-8994
▁الانجليزية	-8995
▁destination	-8996
▁temperature	-8997
▁الرّياضيّات	-8998
,"	-8999
ev	-9000
gl	-9001
kn	-9002
lo	-9003
sc	-9004
sh	-9005
ym	-9006
؟“	-9007
أة	-9008
ثّ	-9009
جو	-9010
حن	-9011
دئ	-9012
ذل	-9013
رر	-9014
شغ	-9015
صَ	-9016
عش	-9017
لط	-9018
وث	-9019
يذ	-9020
ُّ	-9021
ِج	-9022
▁(	-9023
▁ۆ	-9024
▁—	-9025
▁€	-9026
bag	-9027
bey	-9028
bye	-9029
che	-9030
cot	-9031
cut	-9032
ibl	-9033
lit	-9034
ner	-9035
ran	-9036
rel	-9037
ria	-9038
ugg	-9039
uji	-9040
uko	-9041
val	-9042
أكد	-9043
ؤون	-9044
ارد	-9045
باط	-9046
بدة	-9047
بيل	-9048
جها	-9049
حكم	-9050
رجة	-9051
روع	-9052
روي	-9053
ريم	-9054
زعا	-9055
ساد	-9056
ستة	-9057
صفة	-9058
صلة	-9059
صِل	-9060
ضاع	-9061
ضاي	-9062
ضيق	-9063
طائ	-9064
طفل	-9065
طيخ	-9066
عجل	-9067
عية	-9068
غيت	-9069
فيق	-9070
قتك	-9071
قتي	-9072
قسي	-9073
لاك	-9074
ليم	-9075
ماك	-9076
مبر	-9077
موذ	-9078
مّع	-9079
ناد	-9080
ناً	-9081
نّي	-9082
واد	-9083
وبز	-9084
وفا	-9085
وكي	-9086
ويت	-9087
ِيم	-9088
ِيَ	-9089
ّرا	-9090
▁12	-9091
▁99	-9092
▁CD	-9093
▁Cl	-9094
▁Fe	-9095
▁Fo	-9096
▁ug	-9097
▁آه	-9098
▁إث	-9099
▁تَ	-9100
▁خَ	-9101
▁دُ	-9102
▁شغ	-9103
▁طب	-9104
▁عز	-9105
▁عَ	-9106
▁فص	-9107
▁فَ	-9108
▁لآ	-9109
▁لپ	-9110
▁نو	-9111
ansl	-9112
coln	-9113
hers	-9114
host	-9115
ides	-9116
ingu	-9117
ires	-9118
lies	-9119
line	-9120
llen	-9121
nect	-9122
orld	-9123
ples	-9124
pper	-9125
ront	-9126
vent	-9127
ycle	-9128
zing	-9129
امات	-9130
املة	-9131
انته	-9132
انين	-9133
بيرة	-9134
جاوز	-9135
خاطر	-9136
ربعة	-9137
رتين	-9138
سامح	-9139
سنان	-9140
شاهد	-9141
شياء	-9142
صالح	-9143
صالي	-9144
صدّق	-9145
طاعم	-9146
عدام	-9147
عدني	-9148
عرّي	-9149
فكار	-9150
قائك	-9151
قتنا	-9152
قتها	-9153
قلال	-9154
لادي	-9155
لازل	-9156
لاقا	-9157
لتان	-9158
لقّى	-9159
متّع	-9160
مرضة	-9161
ملكة	-9162
مييز	-9163
ميّز	-9164
مّري	-9165
وابة	-9166
واحي	-9167
وكير	-9168
يفور	-9169
َهُم	-9170
َيْن	-9171
▁196	-9172
▁197	-9173
▁Cat	-9174
▁ace	-9175
▁ban	-9176
▁div	-9177
▁glo	-9178
▁gym	-9179
▁lif	-9180
▁neg	-9181
▁net	-9182
▁owe	-9183
▁rab	-9184
▁wid	-9185
▁wit	-9186
▁أجب	-9187
▁أحل	-9188
▁أري	-9189
▁أمت	-9190
▁أمك	-9191
▁أُخ	-9192
▁اته	-9193
▁اخذ	-9194
▁بأم	-9195
▁برد	-9196
▁بضع	-9197
▁بلي	-9198
▁بنت	-9199
▁تاك	-9200
▁تبر	-9201
▁تجر	-9202
▁ترد	-9203
▁تقم	-9204
▁توا	-9205
▁جاد	-9206
▁جرب	-9207
▁حرف	-9208
▁خلق	-9209
▁خيا	-9210
▁دور	-9211
▁دول	-9212
▁ذكر	-9213
▁رأت	-9214
▁رفع	-9215
▁رقص	-9216
▁ركب	-9217
▁سأن	-9218
▁سات	-9219
▁سحب	-9220
▁سوء	-9221
▁شئت	-9222
▁شرك	-9223
▁شري	-9224
▁شكّ	-9225
▁طبا	-9226
▁طرق	-9227
▁علی	-9228
▁فتى	-9229
▁فرض	-9230
▁فلك	-9231
▁قسم	-9232
▁قُل	-9233
▁كرّ	-9234
▁كيت	-9235
▁كُل	-9236
▁لأي	-9237
▁لسن	-9238
▁لين	-9239
▁متر	-9240
▁معط	-9241
▁مقت	-9242
▁نبي	-9243
▁نجا	-9244
▁نظف	-9245
▁واع	-9246
▁واق	-9247
▁يسم	-9248
▁يظن	-9249
▁ينس	-9250
aring	-9251
ashed	-9252
ators	-9253
chiat	-9254
cient	-9255
ctive	-9256
ength	-9257
fered	-9258
illed	-9259
itled	-9260
itude	-9261
lling	-9262
mbles	-9263
razil	-9264
unted	-9265
انيّة	-9266
حافلة	-9267
راقبة	-9268
ساسية	-9269
شاهدة	-9270
لاحظة	-9271
هرباء	-9272
وجبات	-9273
▁Cong	-9274
▁Didn	-9275
▁From	-9276
▁Mars	-9277
▁Time	-9278
▁asks	-9279
▁assa	-9280
▁bars	-9281
▁bell	-9282
▁cand	-9283
▁corn	-9284
▁deaf	-9285
▁diam	-9286
▁dish	-9287
▁drop	-9288
▁drow	-9289
▁effe	-9290
▁emot	-9291
▁fash	-9292
▁fork	-9293
▁gang	-9294
▁golf	-9295
▁harm	-9296
▁jobs	-9297
▁joke	-9298
▁laun	-9299
▁liar	-9300
▁obey	-9301
▁okay	-9302
▁pale	-9303
▁sibl	-9304
▁stri	-9305
▁toil	-9306
▁uses	-9307
▁vote	-9308
▁weap	-9309
▁آلاف	-9310
▁أتصل	-9311
▁أجبر	-9312
▁أجلك	-9313
▁أراه	-9314
▁أسأل	-9315
▁أصاب	-9316
▁أطفئ	-9317
▁أعطى	-9318
▁أغلب	-9319
▁أفقد	-9320
▁أقام	-9321
▁أقدم	-9322
▁أقفل	-9323
▁أنسا	-9324
▁أُحب	-9325
▁إنته	-9326
▁اختر	-9327
▁استج	-9328
▁اسمع	-9329
▁اعرف	-9330
▁اكثر	-9331
▁الإت	-9332
▁الإق	-9333
▁التذ	-9334
▁الحر	-9335
▁الحش	-9336
▁الذا	-9337
▁الرق	-9338
▁العم	-9339
▁المق	-9340
▁النظ	-9341
▁الهن	-9342
▁اهتم	-9343
▁ببعض	-9344
▁بجدّ	-9345
▁بجهد	-9346
▁بحذر	-9347
▁بحيا	-9348
▁بفضل	-9349
▁بقية	-9350
▁بقيت	-9351
▁بلده	-9352
▁بوعد	-9353
▁تحصل	-9354
▁تحقق	-9355
▁تخاص	-9356
▁تسرع	-9357
▁تشبه	-9358
▁تصدر	-9359
▁تصرخ	-9360
▁تعزف	-9361
▁تعود	-9362
▁تكذب	-9363
▁توصل	-9364
▁جارة	-9365
▁جانب	-9366
▁جعلت	-9367
▁حالة	-9368
▁حبيب	-9369
▁حيال	-9370
▁حيّا	-9371
▁خلاص	-9372
▁دليل	-9373
▁دوما	-9374
▁رأيه	-9375
▁راهو	-9376
▁زوجي	-9377
▁زيار	-9378
▁سجّل	-9379
▁سقطت	-9380
▁سكان	-9381
▁سلام	-9382
▁شعره	-9383
▁طفول	-9384
▁عانى	-9385
▁عجلة	-9386
▁علام	-9387
▁علبة	-9388
▁علمت	-9389
▁عملا	-9390
▁عمّا	-9391
▁فظيع	-9392
▁قبّل	-9393
▁قُتل	-9394
▁لأحد	-9395
▁لأنك	-9396
▁لاست	-9397
▁لوقت	-9398
▁ليوم	-9399
▁معتا	-9400
▁مغلق	-9401
▁مقصد	-9402
▁مناد	-9403
▁نأكل	-9404
▁نظّا	-9405
▁نقطة	-9406
▁نقوم	-9407
▁هووا	-9408
▁ورشة	-9409
▁يأتِ	-9410
▁يبعد	-9411
▁يتبع	-9412
▁يترك	-9413
▁يخاف	-9414
▁يخفي	-9415
▁يسوق	-9416
▁يسيء	-9417
▁يصنع	-9418
▁يقال	-9419
▁يقلّ	-9420
alling	-9421
ateful	-9422
icated	-9423
itical	-9424
verage	-9425
جتماعي	-9426
ساعدني	-9427
لفزيون	-9428
ونوبيل	-9429
ّارتها	-9430
▁Bless	-9431
▁India	-9432
▁Langu	-9433
▁Shall	-9434
▁Trump	-9435
▁World	-9436
▁aband	-9437
▁attic	-9438
▁below	-9439
▁bitch	-9440
▁blond	-9441
▁brush	-9442
▁cause	-9443
▁fever	-9444
▁filed	-9445
▁ghost	-9446
▁group	-9447
▁memor	-9448
▁ocean	-9449
▁passw	-9450
▁postp	-9451
▁scrat	-9452
▁shows	-9453
▁smile	-9454
▁socks	-9455
▁speed	-9456
▁split	-9457
▁stars	-9458
▁storm	-9459
▁swear	-9460
▁trade	-9461
▁trick	-9462
▁walks	-9463
▁waste	-9464
▁آخرين	-9465
▁أحبها	-9466
▁أسرته	-9467
▁أغراض	-9468
▁أقوله	-9469
▁أمضيت	-9470
▁أهمية	-9471
▁أيضًا	-9472
▁إجابة	-9473
▁إجراء	-9474
▁إنتظر	-9475
▁الإعل	-9476
▁الجرس	-9477
▁الحكم	-9478
▁الدول	-9479
▁الدّم	-9480
▁الشعر	-9481
▁الشّر	-9482
▁الصحة	-9483
▁الضوء	-9484
▁العاص	-9485
▁العنف	-9486
▁القرن	-9487
▁القول	-9488
▁المرأ	-9489
▁المزر	-9490
▁المعا	-9491
▁الملا	-9492
▁الورق	-9493
▁الّذي	-9494
▁بأنها	-9495
▁بأنّه	-9496
▁بتاتا	-9497
▁بيانو	-9498
▁تتعلم	-9499
▁تجربة	-9500
▁ترامب	-9501
▁تسبّب	-9502
▁تعالَ	-9503
▁تعلمت	-9504
▁تغادر	-9505
▁تقابل	-9506
▁تكلّم	-9507
▁تنظيف	-9508
▁توقفت	-9509
▁حافلة	-9510
▁دراجة	-9511
▁درّاج	-9512
▁رايحا	-9513
▁سؤالا	-9514
▁ستأتي	-9515
▁ستبدأ	-9516
▁شاهدت	-9517
▁طالبا	-9518
▁عديدة	-9519
▁عطشان	-9520
▁غاضبا	-9521
▁غالية	-9522
▁فائدة	-9523
▁فخورة	-9524
▁قابلت	-9525
▁قادرة	-9526
▁كلامه	-9527
▁لطيفا	-9528
▁لفترة	-9529
▁لكنني	-9530
▁لكنّه	-9531
▁للاست	-9532
▁لنلعب	-9533
▁لننسى	-9534
▁متأخر	-9535
▁مشروع	-9536
▁مطلقا	-9537
▁معايا	-9538
▁مفتوح	-9539
▁مفيدة	-9540
▁نقدرش	-9541
▁وجهها	-9542
▁وُلدت	-9543
▁يتزوج	-9544
▁يتعلم	-9545
▁يحترق	-9546
▁يسافر	-9547
▁يشتري	-9548
▁يشتغل	-9549
▁يعجبك	-9550
▁يمثّل	-9551
▁يُقال	-9552
working	-9553
▁Brazil	-9554
▁Korean	-9555
▁affect	-9556
▁applic	-9557
▁author	-9558
▁clever	-9559
▁closer	-9560
▁coward	-9561
▁custom	-9562
▁democr	-9563
▁errors	-9564
▁escape	-9565
▁finger	-9566
▁giving	-9567
▁humans	-9568
▁indisp	-9569
▁jumped	-9570
▁killer	-9571
▁papers	-9572
▁phones	-9573
▁pillar	-9574
▁policy	-9575
▁polite	-9576
▁prices	-9577
▁rabbit	-9578
▁remain	-9579
▁season	-9580
▁served	-9581
▁severe	-9582
▁sighed	-9583
▁sooner	-9584
▁spirit	-9585
▁stamps	-9586
▁versed	-9587
▁wealth	-9588
▁أجنبية	-9589
▁أخبرنا	-9590
▁أسابيع	-9591
▁إخباري	-9592
▁احترام	-9593
▁ارتكاب	-9594
▁استطعت	-9595
▁استطيع	-9596
▁استقال	-9597
▁الأزرق	-9598
▁البذلة	-9599
▁البلاد	-9600
▁البناء	-9601
▁الجبنة	-9602
▁الدّرس	-9603
▁الشتاء	-9604
▁الشّخص	-9605
▁الغابة	-9606
▁الفراش	-9607
▁الفرصة	-9608
▁الفطور	-9609
▁الفكرة	-9610
▁القرية	-9611
▁الكعكة	-9612
▁المتحف	-9613
▁المرضى	-9614
▁المركز	-9615
▁المرور	-9616
▁المريخ	-9617
▁المطاف	-9618
▁الهجوم	-9619
▁الهدية	-9620
▁الورود	-9621
▁الوصول	-9622
▁انتظرت	-9623
▁بأكمله	-9624
▁بالعمل	-9625
▁بامرأة	-9626
▁بعضكما	-9627
▁تستحقّ	-9628
▁تعرفني	-9629
▁حاسوبه	-9630
▁حقيبتي	-9631
▁حقيقية	-9632
▁دراسته	-9633
▁رسالتك	-9634
▁سأحاول	-9635
▁سأشتري	-9636
▁سألتني	-9637
▁صديقته	-9638
▁غيبوبة	-9639
▁قاموسي	-9640
▁لرؤيتك	-9641
▁لطالما	-9642
▁ماكانش	-9643
▁محفظتي	-9644
▁مستاءا	-9645
▁معمّري	-9646
▁مفتوحا	-9647
▁هوايتي	-9648
▁والديه	-9649
▁يتصرّف	-9650
▁يمكنكَ	-9651
▁Lincoln	-9652
▁answers	-9653
▁burning	-9654
▁citizen	-9655
▁claimed	-9656
▁contrib	-9657
▁dancing	-9658
▁disease	-9659
▁example	-9660
▁failure	-9661
▁fashion	-9662
▁haunted	-9663
▁healthy	-9664
▁liberty	-9665
▁matters	-9666
▁mystery	-9667
▁nursing	-9668
▁offered	-9669
▁oranges	-9670
▁punched	-9671
▁savings	-9672
▁selfish	-9673
▁singing	-9674
▁sisters	-9675
▁stomach	-9676
▁teaches	-9677
▁thanked	-9678
▁various	-9679
▁victory	-9680
▁الاتصال	-9681
▁الاطفال	-9682
▁البشرية	-9683
▁البوابة	-9684
▁التالية	-9685
▁الثلاجة	-9686
▁الجميلة	-9687
▁الحقيقي	-9688
▁الذّهاب	-9689
▁السرطان	-9690
▁الشطرنج	-9691
▁الصندوق	-9692
▁الصّباح	-9693
▁القبايل	-9694
▁الكفاية	-9695
▁المذياع	-9696
▁المرحلة	-9697
▁المملكة	-9698
▁النوافذ	-9699
▁بالذهاب	-9700
▁بالرّغم	-9701
▁بالكامل	-9702
▁بِتِيزي	-9703
▁جراحيّة	-9704
▁فستاناً	-9705
▁مدرستنا	-9706
▁مدرّسون	-9707
▁مساعدته	-9708
▁مفاتيحي	-9709
▁يتكلمون	-9710
▁Whenever	-9711
▁achieved	-9712
▁changing	-9713
▁electric	-9714
▁exercise	-9715
▁fighting	-9716
▁fluently	-9717
▁grateful	-9718
▁handsome	-9719
▁independ	-9720
▁invented	-9721
▁personal	-9722
▁property	-9723
▁psychiat	-9724
▁siblings	-9725
▁strawber	-9726
▁strength	-9727
▁thoughts	-9728
▁الإجتماع	-9729
▁الإعتماد	-9730
▁الانتباه	-9731
▁السياحية	-9732
▁العقليّة	-9733
▁المحاولة	-9734
▁Obviously	-9735
▁beginning	-9736
▁character	-9737
▁classical	-9738
▁interests	-9739
▁recommend	-9740
▁regularly	-9741
▁searching	-9742
▁succeeded	-9743
▁suggested	-9744
▁tradition	-9745
▁traveling	-9746
▁إرهابيّين	-9747
▁absolutely	-9748
▁principles	-9749
▁watermelon	-9750
▁الإسرائيلي	-9751
▁الاجتماعية	-9752
▁concentrate	-9753
▁exaggerating	-9754
▁intentionally	-9755
▁understanding	-9756
7.	-9757
9.	-9758
go	-9759
me	-9760
ni	-9761
uh	-9762
yd	-9763
zz	-9764
أخ	-9765
ئح	-9766
تْ	-9767
خف	-9768
خّ	-9769
شِ	-9770
طح	-9771
طم	-9772
عُ	-9773
لس	-9774
نف	-9775
ْ!	-9776
ْح	-9777
ْز	-9778
▁i	-9779
ago	-9780
amm	-9781
att	-9782
duc	-9783
flu	-9784
het	-9785
ids	-9786
iff	-9787
irm	-9788
lax	-9789
lex	-9790
mon	-9791
ney	-9792
oro	-9793
pet	-9794
pir	-9795
ram	-9796
tha	-9797
udi	-9798
uly	-9799
umn	-9800
ums	-9801
ئنا	-9802
اطر	-9803
الد	-9804
بعث	-9805
بقي	-9806
بًا	-9807
تبت	-9808
تكب	-9809
ثرت	-9810
جيل	-9811
حاء	-9812
حام	-9813
حظة	-9814
حقق	-9815
حيم	-9816
حين	-9817
خبة	-9818
خيص	-9819
درش	-9820
ديه	-9821
راع	-9822
ريّ	-9823
سرع	-9824
سلة	-9825
سوق	-9826
شار	-9827
شرب	-9828
شير	-9829
صاب	-9830
صنع	-9831
صّل	-9832
ضمّ	-9833
طلة	-9834
طول	-9835
طّط	-9836
علق	-9837
عها	-9838
غسل	-9839
غني	-9840
فتك	-9841
فظة	-9842
قاظ	-9843
كُل	-9844
لعت	-9845
لقى	-9846
ليق	-9847
لّب	-9848
مرّ	-9849
مية	-9850
ميك	-9851
مّل	-9852
نها	-9853
نيت	-9854
نّا	-9855
وبت	-9856
وحة	-9857
وظة	-9858
وعة	-9859
وقة	-9860
وقي	-9861
وكة	-9862
ويه	-9863
يتي	-9864
يدو	-9865
َةَ	-9866
َةُ	-9867
َعْ	-9868
ُلَ	-9869
ِبَ	-9870
ِكَ	-9871
ِلت	-9872
ِمت	-9873
ِها	-9874
ِهِ	-9875
ِير	-9876
ّاك	-9877
ّلة	-9878
▁17	-9879
▁90	-9880
▁Gu	-9881
▁Mt	-9882
▁ur	-9883
▁أؤ	-9884
▁إم	-9885
▁از	-9886
▁جذ	-9887
▁جم	-9888
▁حَ	-9889
▁خد	-9890
▁خش	-9891
▁خف	-9892
▁دۆ	-9893
▁رآ	-9894
▁رش	-9895
▁عْ	-9896
▁غر	-9897
▁غط	-9898
▁فط	-9899
▁قف	-9900
▁كط	-9901
▁كو	-9902
aced	-9903
adem	-9904
aign	-9905
alem	-9906
aped	-9907
cing	-9908
edia	-9909
eral	-9910
ergy	-9911
erus	-9912
exas	-9913
geon	-9914
hern	-9915
illy	-9916
mbol	-9917
obal	-9918
oved	-9919
ownt	-9920
phan	-9921
ques	-9922
rent	-9923
star	-9924
ults	-9925
ulty	-9926
umed	-9927
ابون	-9928
افير	-9929
الها	-9930
بارح	-9931
بتسم	-9932
بتها	-9933
بلام	-9934
بّاء	-9935
تقان	-9936
جارة	-9937
جربة	-9938
حافظ	-9939
حتها	-9940
حكمة	-9941
خبار	-9942
دمّر	-9943
ديات	-9944
ديان	-9945
ديدا	-9946
رائم	-9947
راها	-9948
رفتك	-9949
رورة	-9950
ريعة	-9951
زارة	-9952
زعاج	-9953
سامة	-9954
سرقة	-9955
سيان	-9956
سيۆن	-9957
صّلت	-9958
عتنا	-9959
عتها	-9960
عداد	-9961
فتقد	-9962
فردي	-9963
فلات	-9964
قدام	-9965
لاسي	-9966
لتنا	-9967
ماعة	-9968
متعة	-9969
منّى	-9970
ناها	-9971
ناية	-9972
هادة	-9973
هناك	-9974
هيرة	-9975
وابع	-9976
وايا	-9977
وبات	-9978
وسية	-9979
وسّل	-9980
وقّع	-9981
وننا	-9982
َلَا	-9983
َّهُ	-9984
ْرَا	-9985
▁...	-9986
▁194	-9987
▁Cut	-9988
▁Day	-9989
▁Fin	-9990
▁Haw	-9991
▁Kar	-9992
▁Rem	-9993
▁Sat	-9994
▁Sir	-9995
▁Ten	-9996
▁Tim	-9997
▁bes	-9998
▁bri	-9999
▁cig	-10000
▁ded	-10001
▁hig	-10002
▁mut	-10003
▁ord	-10004
▁ren	-10005
▁sac	-10006
▁آلة	-10007
▁أتح	-10008
▁أتم	-10009
▁أثر	-10010
▁أدر	-10011
▁أسم	-10012
▁أنش	-10013
▁أنص	-10014
▁أوق	-10015
▁أيا	-10016
▁إدا	-10017
▁ابق	-10018
▁امت	-10019
▁اين	-10020
▁بحق	-10021
▁برأ	-10022
▁برف	-10023
▁بصد	-10024
▁بمس	-10025
▁تام	-10026
▁تثق	-10027
▁تذك	-10028
▁تنص	-10029
▁توح	-10030
▁جان	-10031
▁جثة	-10032
▁جيب	-10033
▁حاد	-10034
▁حبي	-10035
▁حرا	-10036
▁حزن	-10037
▁حُك	-10038
▁خبر	-10039
▁خبز	-10040
▁خلع	-10041
▁دوا	-10042
▁سبت	-10043
▁ستن	-10044
▁سرّ	-10045
▁سلا	-10046
▁سنا	-10047
▁شنو	-10048
▁صحة	-10049
▁صدم	-10050
▁ضلي	-10051
▁عدت	-10052
▁عرب	-10053
▁عشت	-10054
▁عيش	-10055
▁غام	-10056
▁فار	-10057
▁فحص	-10058
▁فسن	-10059
▁قان	-10060
▁قرّ	-10061
▁قهو	-10062
▁قيل	-10063
▁كات	-10064
▁كذب	-10065
▁كيل	-10066
▁لاي	-10067
▁لتر	-10068
▁لحا	-10069
▁لقط	-10070
▁لكِ	-10071
▁للف	-10072
▁لمع	-10073
▁لون	-10074
▁مبت	-10075
▁محد	-10076
▁مدع	-10077
▁مزي	-10078
▁معت	-10079
▁مغر	-10080
▁مغل	-10081
▁ممل	-10082
▁موت	-10083
▁ناس	-10084
▁نجح	-10085
▁نظا	-10086
▁هاك	-10087
▁هاه	-10088
▁هاي	-10089
▁وإن	-10090
▁وهو	-10091
▁يأت	-10092
▁يتخ	-10093
▁يحل	-10094
▁يرب	-10095
▁يقل	-10096
▁يلب	-10097
▁يمن	-10098
atoes	-10099
cture	-10100
icago	-10101
imate	-10102
inist	-10103
istan	-10104
ivity	-10105
lined	-10106
mates	-10107
ooper	-10108
opeks	-10109
osite	-10110
place	-10111
ribly	-10112
اميّة	-10113
جلترا	-10114
ربعين	-10115
مريكا	-10116
واسيب	-10117
▁0.99	-10118
▁Educ	-10119
▁Fill	-10120
▁Fuck	-10121
▁Fuji	-10122
▁Inst	-10123
▁Once	-10124
▁abus	-10125
▁acqu	-10126
▁bapt	-10127
▁bite	-10128
▁cave	-10129
▁cops	-10130
▁drag	-10131
▁epis	-10132
▁fasc	-10133
▁fift	-10134
▁fort	-10135
▁hang	-10136
▁hell	-10137
▁hill	-10138
▁hire	-10139
▁legs	-10140
▁merc	-10141
▁mult	-10142
▁nerv	-10143
▁pack	-10144
▁rang	-10145
▁rose	-10146
▁sang	-10147
▁size	-10148
▁stun	-10149
▁tens	-10150
▁tool	-10151
▁ugly	-10152
▁wars	-10153
▁wept	-10154
▁أبعد	-10155
▁أبلغ	-10156
▁أبنا	-10157
▁أخته	-10158
▁أسبح	-10159
▁أطيب	-10160
▁أعمى	-10161
▁أمرا	-10162
▁أمكن	-10163
▁أمين	-10164
▁أناس	-10165
▁أهذه	-10166
▁أَنْ	-10167
▁إخوة	-10168
▁إذاً	-10169
▁إسمه	-10170
▁إفعل	-10171
▁ابدا	-10172
▁احجز	-10173
▁اخرج	-10174
▁اكتب	-10175
▁التو	-10176
▁الدا	-10177
▁السل	-10178
▁المه	-10179
▁النص	-10180
▁الوق	-10181
▁انتق	-10182
▁انني	-10183
▁بأنّ	-10184
▁باسم	-10185
▁بالآ	-10186
▁بالز	-10187
▁باله	-10188
▁بريد	-10189
▁بطلا	-10190
▁بفعل	-10191
▁بقدر	-10192
▁بيتر	-10193
▁تسرق	-10194
▁تصدق	-10195
▁تظهر	-10196
▁تفوح	-10197
▁تقتل	-10198
▁تمزح	-10199
▁تنهد	-10200
▁جبان	-10201
▁جدتي	-10202
▁جرّا	-10203
▁جزءا	-10204
▁حلمت	-10205
▁خاصة	-10206
▁داعي	-10207
▁درست	-10208
▁رجلي	-10209
▁سابق	-10210
▁ساحة	-10211
▁سميث	-10212
▁سيئا	-10213
▁سينت	-10214
▁شارك	-10215
▁شعرك	-10216
▁شعري	-10217
▁صلاة	-10218
▁صوتا	-10219
▁صوتك	-10220
▁طيلة	-10221
▁عايش	-10222
▁عربي	-10223
▁عشان	-10224
▁علىَ	-10225
▁علّم	-10226
▁عمرك	-10227
▁غدوا	-10228
▁غدًا	-10229
▁فوجي	-10230
▁فوّت	-10231
▁قسمه	-10232
▁قصير	-10233
▁قصّة	-10234
▁كتبي	-10235
▁كتير	-10236
▁كلبك	-10237
▁كنتِ	-10238
▁كهذه	-10239
▁كولّ	-10240
▁لاعب	-10241
▁لتلك	-10242
▁لذيذ	-10243
▁لطفك	-10244
▁لفعل	-10245
▁لوري	-10246
▁ليلا	-10247
▁مالي	-10248
▁مجال	-10249
▁مختب	-10250
▁مرةً	-10251
▁مرور	-10252
▁مظلة	-10253
▁مظهر	-10254
▁معرو	-10255
▁مفتا	-10256
▁مليء	-10257
▁نبحث	-10258
▁نبدأ	-10259
▁نجاح	-10260
▁نقود	-10261
▁نوما	-10262
▁نّاس	-10263
▁هاري	-10264
▁هذهِ	-10265
▁وأنا	-10266
▁واجه	-10267
▁وحدي	-10268
▁ورطة	-10269
▁ورقة	-10270
▁وعيه	-10271
▁يبيع	-10272
▁يتعا	-10273
▁يجوز	-10274
▁يربح	-10275
▁يرغب	-10276
▁يركب	-10277
▁يطلب	-10278
▁يعرض	-10279
▁يعطي	-10280
▁ينزل	-10281
cially	-10282
ctions	-10283
itions	-10284
omatic	-10285
رۆبلام	-10286
▁Above	-10287
▁Clean	-10288
▁Close	-10289
▁Georg	-10290
▁Grand	-10291
▁Harry	-10292
▁Haven	-10293
▁Jerus	-10294
▁Smith	-10295
▁Write	-10296
▁adapt	-10297
▁alibi	-10298
▁avoid	-10299
▁based	-10300
▁behav	-10301
▁bless	-10302
▁brown	-10303
▁devil	-10304
▁disag	-10305
▁disli	-10306
▁docum	-10307
▁downt	-10308
▁facts	-10309
▁finan	-10310
▁finds	-10311
▁force	-10312
▁homes	-10313
▁hopes	-10314
▁ignor	-10315
▁influ	-10316
▁lover	-10317
▁plans	-10318
▁press	-10319
▁raise	-10320
▁reput	-10321
▁rooms	-10322
▁scare	-10323
▁sport	-10324
▁steal	-10325
▁strip	-10326
▁sunny	-10327
▁swims	-10328
▁throw	-10329
▁total	-10330
▁أحبّك	-10331
▁أستمع	-10332
▁أعتذر	-10333
▁أغلقت	-10334
▁أغنية	-10335
▁أفعله	-10336
▁ألديك	-10337
▁أمامي	-10338
▁إصلاح	-10339
▁إعادة	-10340
▁إلينا	-10341
▁إنّها	-10342
▁ابتعد	-10343
▁ابنته	-10344
▁اختبأ	-10345
▁اصطحب	-10346
▁الأبد	-10347
▁البتة	-10348
▁البرا	-10349
▁البري	-10350
▁البنك	-10351
▁التّن	-10352
▁الجوّ	-10353
▁الجيش	-10354
▁الحبّ	-10355
▁الحيّ	-10356
▁الدين	-10357
▁الرائ	-10358
▁الركض	-10359
▁الزمن	-10360
▁السجن	-10361
▁الشاب	-10362
▁العزف	-10363
▁العكس	-10364
▁العنص	-10365
▁الغير	-10366
▁الفار	-10367
▁القدس	-10368
▁القصي	-10369
▁المري	-10370
▁المقا	-10371
▁الملح	-10372
▁الملف	-10373
▁الميت	-10374
▁الوجه	-10375
▁الوسا	-10376
▁انخفض	-10377
▁بالتّ	-10378
▁بالمل	-10379
▁بثلاث	-10380
▁بداخل	-10381
▁بماري	-10382
▁بوجود	-10383
▁بوستن	-10384
▁بينها	-10385
▁تتدخل	-10386
▁تتزوج	-10387
▁تحبّه	-10388
▁تذكرة	-10389
▁تربية	-10390
▁تركته	-10391
▁تزداد	-10392
▁تصرّف	-10393
▁تغيير	-10394
▁تغيّر	-10395
▁تفكّر	-10396
▁جائعا	-10397
▁حاملا	-10398
▁حبّات	-10399
▁حينها	-10400
▁خمسين	-10401
▁ذاهبا	-10402
▁رؤيته	-10403
▁راهوم	-10404
▁سأترك	-10405
▁سأقول	-10406
▁سأقوم	-10407
▁سألني	-10408
▁سرعان	-10409
▁سفينة	-10410
▁سياسة	-10411
▁سيحدث	-10412
▁شديدة	-10413
▁صندوق	-10414
▁طبيعي	-10415
▁عميقا	-10416
▁عيناك	-10417
▁عَلَى	-10418
▁فإننا	-10419
▁قائمة	-10420
▁قاعدة	-10421
▁قريبة	-10422
▁قويّة	-10423
▁كأنها	-10424
▁كافية	-10425
▁لأنّه	-10426
▁لاحظت	-10427
▁لجمال	-10428
▁لصديق	-10429
▁لقضاء	-10430
▁لكنّي	-10431
▁للأسف	-10432
▁للبيت	-10433
▁للحظة	-10434
▁للخطر	-10435
▁لنأكل	-10436
▁لوكان	-10437
▁ماريا	-10438
▁مترجم	-10439
▁متعبة	-10440
▁متعطّ	-10441
▁مجرّد	-10442
▁محتاج	-10443
▁مشاعر	-10444
▁مشروب	-10445
▁مضحكة	-10446
▁مكتوب	-10447
▁ممتاز	-10448
▁منزلا	-10449
▁موافق	-10450
▁نائمة	-10451
▁نافذة	-10452
▁نتحدث	-10453
▁نتعلم	-10454
▁نعرفه	-10455
▁والدا	-10456
▁وحيدا	-10457
▁وقتاش	-10458
▁وقتاً	-10459
▁ولاية	-10460
▁وَاشْ	-10461
▁يجعلك	-10462
▁يعامل	-10463
▁يعاني	-10464
▁يعطيك	-10465
▁يقابل	-10466
▁يقدّم	-10467
anslate	-10468
entions	-10469
ilities	-10470
ruction	-10471
يفورنيا	-10472
▁Almost	-10473
▁George	-10474
▁Laurie	-10475
▁Mayuko	-10476
▁Mexico	-10477
▁accomp	-10478
▁artist	-10479
▁barely	-10480
▁basket	-10481
▁breath	-10482
▁buying	-10483
▁collap	-10484
▁compet	-10485
▁cooked	-10486
▁cousin	-10487
▁danced	-10488
▁desire	-10489
▁determ	-10490
▁double	-10491
▁energy	-10492
▁experi	-10493
▁fridge	-10494
▁fright	-10495
▁gloves	-10496
▁indeed	-10497
▁injury	-10498
▁length	-10499
▁master	-10500
▁mutual	-10501
▁notice	-10502
▁phoned	-10503
▁physic	-10504
▁pieces	-10505
▁plenty	-10506
▁remark	-10507
▁repres	-10508
▁series	-10509
▁settle	-10510
▁signed	-10511
▁slight	-10512
▁smells	-10513
▁sorrow	-10514
▁spread	-10515
▁suffer	-10516
▁symbol	-10517
▁ticked	-10518
▁toilet	-10519
▁tragic	-10520
▁violin	-10521
▁أتعلّم	-10522
▁أخبرها	-10523
▁أمضينا	-10524
▁أوافقك	-10525
▁إسلامي	-10526
▁اختبار	-10527
▁استمتع	-10528
▁استمرت	-10529
▁اعتقدت	-10530
▁البديل	-10531
▁البشري	-10532
▁التزلج	-10533
▁التوقف	-10534
▁الثاني	-10535
▁الجبال	-10536
▁الجمال	-10537
▁الحدود	-10538
▁الخيال	-10539
▁الدّرا	-10540
▁الرجاء	-10541
▁السمكة	-10542
▁السيدة	-10543
▁الشرطي	-10544
▁الصحون	-10545
▁الصديق	-10546
▁الطالب	-10547
▁العثور	-10548
▁الكريم	-10549
▁المحقّ	-10550
▁النبيذ	-10551
▁النّظر	-10552
▁الوردة	-10553
▁امبارح	-10554
▁انتقلت	-10555
▁انتهيت	-10556
▁بعضهما	-10557
▁بعيداً	-10558
▁بمفرده	-10559
▁بمهارة	-10560
▁تحتاجه	-10561
▁تخاصما	-10562
▁تناولت	-10563
▁ثلاثين	-10564
▁جميعنا	-10565
▁سأعطيك	-10566
▁سامحني	-10567
▁سياحية	-10568
▁صحيحًا	-10569
▁صديقان	-10570
▁عالمية	-10571
▁لحياته	-10572
▁لسنوات	-10573
▁للجميع	-10574
▁للقيام	-10575
▁للمزيد	-10576
▁متأكّد	-10577
▁محاولة	-10578
▁مسؤولي	-10579
▁مشوّشا	-10580
▁معالجة	-10581
▁مفاجأة	-10582
▁مقابلة	-10583
▁ملابسك	-10584
▁ولكنها	-10585
▁يتحكّم	-10586
▁يتزوّج	-10587
▁يحتاجه	-10588
▁يخبرني	-10589
▁يقضيان	-10590
▁Chicago	-10591
▁Russian	-10592
▁Smoking	-10593
▁actions	-10594
▁assault	-10595
▁biggest	-10596
▁challen	-10597
▁concern	-10598
▁contain	-10599
▁crashed	-10600
▁cutting	-10601
▁escaped	-10602
▁growing	-10603
▁holiday	-10604
▁ignored	-10605
▁improve	-10606
▁insects	-10607
▁listens	-10608
▁mission	-10609
▁nations	-10610
▁nervous	-10611
▁obvious	-10612
▁options	-10613
▁pillows	-10614
▁realize	-10615
▁require	-10616
▁respond	-10617
▁ringing	-10618
▁schools	-10619
▁shocked	-10620
▁shorter	-10621
▁silence	-10622
▁sixteen	-10623
▁speaker	-10624
▁species	-10625
▁suppose	-10626
▁teasing	-10627
▁totally	-10628
▁tracked	-10629
▁violent	-10630
▁welcome	-10631
▁willing	-10632
▁أحياناً	-10633
▁الأدوية	-10634
▁الأصوات	-10635
▁البيتزا	-10636
▁التّينة	-10637
▁الحشرات	-10638
▁الخاصّة	-10639
▁الخامسة	-10640
▁الدّرجة	-10641
▁الرابعة	-10642
▁الراديو	-10643
▁السوداء	-10644
▁الشّارع	-10645
▁الصّورة	-10646
▁العنوان	-10647
▁الفرنسي	-10648
▁القصائد	-10649
▁اللّغات	-10650
▁المحلية	-10651
▁المشتبه	-10652
▁المعركة	-10653
▁المفضلة	-10654
▁المنتزه	-10655
▁الوجبات	-10656
▁باستطاع	-10657
▁دراسيّة	-10658
▁سيتزوّج	-10659
▁عنصريّة	-10660
▁قابلتها	-10661
▁للميلاد	-10662
▁مفاتيحه	-10663
▁واجباتك	-10664
stitution	-10665
▁Although	-10666
▁Remember	-10667
▁campaign	-10668
▁cleaning	-10669
▁confront	-10670
▁contrary	-10671
▁criminal	-10672
▁downtown	-10673
▁dumpster	-10674
▁entitled	-10675
▁freedoms	-10676
▁holidays	-10677
▁hundreds	-10678
▁improved	-10679
▁knocking	-10680
▁magazine	-10681
▁negative	-10682
▁opposite	-10683
▁ordinary	-10684
▁pleasure	-10685
▁politics	-10686
▁punished	-10687
▁searched	-10688
▁suitcase	-10689
▁supports	-10690
▁tolerant	-10691
▁transfer	-10692
▁universe	-10693
▁whenever	-10694
▁الاتّصال	-10695
▁الاعتماد	-10696
▁الجزائري	-10697
▁الحقيقية	-10698
▁الكاميرا	-10699
▁الموسيقي	-10700
▁بالإعدام	-10701
▁فيديوهات	-10702
▁للاهتمام	-10703
▁للموسيقى	-10704
▁Education	-10705
▁Goodnight	-10706
▁Jerusalem	-10707
▁Translate	-10708
▁alcoholic	-10709
▁attempted	-10710
▁attracted	-10711
▁dedicated	-10712
▁discussed	-10713
▁existence	-10714
▁graduated	-10715
▁interview	-10716
▁introduce	-10717
▁recognize	-10718
▁religious	-10719
▁الإسبانية	-10720
▁الصّوتيّة	-10721
▁المسيحيّة	-10722
▁approached	-10723
▁assistance	-10724
▁collecting	-10725
▁discovered	-10726
▁frequently	-10727
▁mysterious	-10728
▁punishment	-10729
▁reputation	-10730
▁yourselves	-10731
▁الإسبرانتو	-10732
▁السّيّارات	-10733
▁الشوكولاتة	-10734
▁الفيديوهات	-10735
▁كاليفورنيا	-10736
▁independent	-10737
▁prostitutes	-10738
▁conversation	-10739
'.	-10740
2.	-10741
4.	-10742
SA	-10743
de	-10744
wr	-10745
ya	-10746
أج	-10747
أم	-10748
بَ	-10749
حَ	-10750
دد	-10751
دف	-10752
ره	-10753
رَ	-10754
زع	-10755
زّ	-10756
ظّ	-10757
غد	-10758
قِ	-10759
لأ	-10760
له	-10761
مط	-10762
هب	-10763
وخ	-10764
يه	-10765
ُت	-10766
ِش	-10767
ّط	-10768
▁:	-10769
▁ڤ	-10770
11.	-10771
abl	-10772
aff	-10773
aii	-10774
ala	-10775
ald	-10776
cra	-10777
dam	-10778
ees	-10779
elf	-10780
hai	-10781
hod	-10782
ify	-10783
ikh	-10784
iko	-10785
iod	-10786
lif	-10787
nic	-10788
ole	-10789
orc	-10790
ply	-10791
reg	-10792
sit	-10793
str	-10794
ucy	-10795
uel	-10796
vol	-10797
أني	-10798
ؤوس	-10799
إلى	-10800
ئتم	-10801
ئرة	-10802
ائع	-10803
ائف	-10804
ارب	-10805
اره	-10806
الت	-10807
بلة	-10808
بيح	-10809
بيه	-10810
تاي	-10811
ثلج	-10812
جري	-10813
جلب	-10814
جمد	-10815
جّع	-10816
حها	-10817
خلي	-10818
داك	-10819
درو	-10820
ذيب	-10821
ذّب	-10822
راغ	-10823
ردد	-10824
روط	-10825
رّج	-10826
زيل	-10827
سار	-10828
سام	-10829
ستر	-10830
سمك	-10831
سّن	-10832
شرح	-10833
شيء	-10834
صرف	-10835
صيب	-10836
ضرة	-10837
ضية	-10838
طئة	-10839
طبا	-10840
طعة	-10841
عتُ	-10842
غان	-10843
فيك	-10844
فين	-10845
قعة	-10846
قلة	-10847
قنا	-10848
قوا	-10849
قوى	-10850
قّب	-10851
كمة	-10852
لًا	-10853
مضي	-10854
ميز	-10855
ناش	-10856
هاء	-10857
هدف	-10858
هلك	-10859
هّم	-10860
واة	-10861
واع	-10862
واق	-10863
وره	-10864
وسط	-10865
وعا	-10866
وفك	-10867
وكا	-10868
ومي	-10869
وّق	-10870
يتُ	-10871
يدك	-10872
َلُ	-10873
َها	-10874
ِبّ	-10875
ِلَ	-10876
ِّي	-10877
ّان	-10878
ّته	-10879
ّفت	-10880
ّما	-10881
پري	-10882
▁14	-10883
▁16	-10884
▁Bi	-10885
▁Ho	-10886
▁Pa	-10887
▁Ph	-10888
▁da	-10889
▁إِ	-10890
▁ثر	-10891
▁جو	-10892
▁جُ	-10893
▁دل	-10894
▁رُ	-10895
▁زي	-10896
▁شو	-10897
▁صل	-10898
▁ضر	-10899
▁كد	-10900
▁كف	-10901
▁مَ	-10902
▁وخ	-10903
▁وض	-10904
▁پا	-10905
acha	-10906
acks	-10907
acon	-10908
ador	-10909
anas	-10910
bing	-10911
eban	-10912
fers	-10913
ibly	-10914
ieve	-10915
ikip	-10916
iles	-10917
ilos	-10918
irus	-10919
ites	-10920
lder	-10921
lict	-10922
mate	-10923
ners	-10924
oked	-10925
oker	-10926
otos	-10927
phab	-10928
pter	-10929
ucky	-10930
ugur	-10931
uman	-10932
upil	-10933
ئيسي	-10934
ائزة	-10935
المة	-10936
امرة	-10937
ترنت	-10938
جابت	-10939
جازة	-10940
جاعة	-10941
جدية	-10942
جلوس	-10943
جواب	-10944
حترم	-10945
حتفل	-10946
درسة	-10947
دّسا	-10948
رابة	-10949
راضي	-10950
ركات	-10951
رياء	-10952
رّفت	-10953
سلسل	-10954
سموح	-10955
صيحة	-10956
ضاعة	-10957
طاعة	-10958
طاقة	-10959
طقين	-10960
طنية	-10961
ظروف	-10962
عجني	-10963
غرطة	-10964
فسير	-10965
فقنا	-10966
قائه	-10967
قدرو	-10968
كانت	-10969
كلّم	-10970
كمّل	-10971
كولن	-10972
كونه	-10973
لمان	-10974
مارة	-10975
ماري	-10976
ماكن	-10977
موذج	-10978
ميّة	-10979
نادق	-10980
نتقل	-10981
نتين	-10982
واتف	-10983
واحد	-10984
وبية	-10985
وضوح	-10986
ولين	-10987
ونيا	-10988
يرًا	-10989
ّاحة	-10990
ّاخل	-10991
ّنّا	-10992
ّينا	-10993
▁Att	-10994
▁Con	-10995
▁Dar	-10996
▁Def	-10997
▁Dem	-10998
▁Dep	-10999
▁Hit	-11000
▁Hun	-11001
▁Isn	-11002
▁Jud	-11003
▁Mat	-11004
▁Mrs	-11005
▁Rom	-11006
▁Sil	-11007
▁aim	-11008
▁ali	-11009
▁dat	-11010
▁dig	-11011
▁env	-11012
▁ess	-11013
▁fox	-11014
▁gra	-11015
▁ham	-11016
▁hug	-11017
▁inf	-11018
▁mal	-11019
▁mel	-11020
▁non	-11021
▁reb	-11022
▁rot	-11023
▁rub	-11024
▁spo	-11025
▁spy	-11026
▁sue	-11027
▁tex	-11028
▁tip	-11029
▁tun	-11030
▁zoo	-11031
▁آلي	-11032
▁آمن	-11033
▁ألح	-11034
▁أَخ	-11035
▁أَي	-11036
▁إقت	-11037
▁ادّ	-11038
▁اغت	-11039
▁بات	-11040
▁بته	-11041
▁بشؤ	-11042
▁بصح	-11043
▁بغض	-11044
▁بنى	-11045
▁بير	-11046
▁بيع	-11047
▁بيك	-11048
▁تتب	-11049
▁تتح	-11050
▁تحد	-11051
▁ترو	-11052
▁تضع	-11053
▁تمت	-11054
▁تمل	-11055
▁تود	-11056
▁تُر	-11057
▁جهد	-11058
▁حاض	-11059
▁حبة	-11060
▁حذف	-11061
▁حصص	-11062
▁حما	-11063
▁خدّ	-11064
▁خلي	-11065
▁ذئب	-11066
▁ساح	-11067
▁سرو	-11068
▁سطح	-11069
▁سقف	-11070
▁سنّ	-11071
▁شبا	-11072
▁شحن	-11073
▁شقة	-11074
▁شمس	-11075
▁صرخ	-11076
▁صمت	-11077
▁صوا	-11078
▁صيد	-11079
▁ضدّ	-11080
▁ضعف	-11081
▁طاب	-11082
▁عبا	-11083
▁عشي	-11084
▁عصر	-11085
▁عصف	-11086
▁عقد	-11087
▁عمّ	-11088
▁عُد	-11089
▁غلط	-11090
▁فاز	-11091
▁فضل	-11092
▁فقي	-11093
▁فلي	-11094
▁قسط	-11095
▁قطا	-11096
▁قطك	-11097
▁قُت	-11098
▁كتر	-11099
▁لأش	-11100
▁لإن	-11101
▁لات	-11102
▁لام	-11103
▁لبي	-11104
▁لسي	-11105
▁لفر	-11106
▁للب	-11107
▁ماد	-11108
▁متف	-11109
▁مجي	-11110
▁مخل	-11111
▁مدة	-11112
▁مدخ	-11113
▁مدي	-11114
▁مسد	-11115
▁مسك	-11116
▁مقد	-11117
▁مقي	-11118
▁ملء	-11119
▁منح	-11120
▁ميل	-11121
▁ناق	-11122
▁نشر	-11123
▁نصل	-11124
▁هائ	-11125
▁هدف	-11126
▁هُم	-11127
▁وان	-11128
▁وصف	-11129
▁ولك	-11130
▁ولي	-11131
▁يتأ	-11132
▁يجه	-11133
▁يخص	-11134
▁يدع	-11135
▁ڤاع	-11136
ademy	-11137
anted	-11138
arett	-11139
cence	-11140
craft	-11141
ender	-11142
ening	-11143
entle	-11144
ested	-11145
heist	-11146
hered	-11147
icate	-11148
icket	-11149
iform	-11150
iforn	-11151
iting	-11152
moned	-11153
oming	-11154
ounce	-11155
ption	-11156
ribes	-11157
rific	-11158
ulous	-11159
ument	-11160
under	-11161
venge	-11162
while	-11163
إمكان	-11164
بريني	-11165
بيوتر	-11166
ربرية	-11167
ريكان	-11168
رّضات	-11169
زوّجت	-11170
ساعده	-11171
صطحاب	-11172
ضايقة	-11173
عوبات	-11174
لاّجة	-11175
مانية	-11176
ندلعت	-11177
وابها	-11178
▁3000	-11179
▁Book	-11180
▁Jews	-11181
▁Know	-11182
▁Lucy	-11183
▁Must	-11184
▁Nara	-11185
▁Pers	-11186
▁Play	-11187
▁Rome	-11188
▁Sikh	-11189
▁Teac	-11190
▁Work	-11191
▁bast	-11192
▁bomb	-11193
▁cash	-11194
▁copy	-11195
▁dece	-11196
▁dign	-11197
▁diss	-11198
▁ease	-11199
▁elev	-11200
▁embr	-11201
▁exit	-11202
▁file	-11203
▁flat	-11204
▁fled	-11205
▁hook	-11206
▁iron	-11207
▁laid	-11208
▁mild	-11209
▁nons	-11210
▁noon	-11211
▁port	-11212
▁rude	-11213
▁sees	-11214
▁sens	-11215
▁shit	-11216
▁site	-11217
▁spot	-11218
▁tech	-11219
▁teen	-11220
▁tiny	-11221
▁type	-11222
▁wild	-11223
▁آمال	-11224
▁أأنت	-11225
▁أبوك	-11226
▁أترك	-11227
▁أتظن	-11228
▁أجلي	-11229
▁أحدث	-11230
▁أحمد	-11231
▁أخيك	-11232
▁أدنى	-11233
▁أريك	-11234
▁أزرق	-11235
▁أزور	-11236
▁أسئل	-11237
▁أصلح	-11238
▁أصلي	-11239
▁أظنه	-11240
▁أفتح	-11241
▁أقبل	-11242
▁أقوى	-11243
▁ألوم	-11244
▁أمره	-11245
▁أمسك	-11246
▁أمها	-11247
▁أموت	-11248
▁أمور	-11249
▁أنفس	-11250
▁أنهُ	-11251
▁أوصل	-11252
▁أوّل	-11253
▁إذهب	-11254
▁إقنا	-11255
▁إنّك	-11256
▁ابنه	-11257
▁ابني	-11258
▁ارفع	-11259
▁اريد	-11260
▁اسأل	-11261
▁اعتن	-11262
▁اعمل	-11263
▁اغسل	-11264
▁اكبر	-11265
▁الار	-11266
▁البح	-11267
▁البس	-11268
▁البط	-11269
▁التك	-11270
▁الجا	-11271
▁الخف	-11272
▁الرؤ	-11273
▁الرب	-11274
▁الشم	-11275
▁الشه	-11276
▁الكي	-11277
▁المظ	-11278
▁المم	-11279
▁المي	-11280
▁النف	-11281
▁الْح	-11282
▁انتح	-11283
▁انتخ	-11284
▁بارع	-11285
▁بالي	-11286
▁بقتل	-11287
▁بيحب	-11288
▁تأتِ	-11289
▁تؤدي	-11290
▁تاعو	-11291
▁تبعد	-11292
▁تبقي	-11293
▁تتصل	-11294
▁تجرؤ	-11295
▁تجمع	-11296
▁تخلّ	-11297
▁تدير	-11298
▁تراه	-11299
▁ترقص	-11300
▁تركب	-11301
▁تركض	-11302
▁تزوج	-11303
▁تسبب	-11304
▁تسلم	-11305
▁تشاء	-11306
▁تعاف	-11307
▁تعبر	-11308
▁تقلع	-11309
▁تلقى	-11310
▁تهتم	-11311
▁تيزي	-11312
▁جنوب	-11313
▁جوّز	-11314
▁حديث	-11315
▁حريق	-11316
▁حزين	-11317
▁حفرة	-11318
▁حمية	-11319
▁حيّه	-11320
▁خاطئ	-11321
▁خبرة	-11322
▁خلفي	-11323
▁دمّر	-11324
▁دينه	-11325
▁ذكية	-11326
▁ذهبا	-11327
▁راجل	-11328
▁ربحت	-11329
▁رخصة	-11330
▁ركبت	-11331
▁روما	-11332
▁زفاف	-11333
▁سخيف	-11334
▁سرير	-11335
▁سيئة	-11336
▁سيست	-11337
▁سيصل	-11338
▁شأنه	-11339
▁شرطي	-11340
▁شعور	-11341
▁شيكا	-11342
▁صعبا	-11343
▁صغار	-11344
▁طائر	-11345
▁طفلة	-11346
▁طلبي	-11347
▁عجوز	-11348
▁عربة	-11349
▁عضوا	-11350
▁عمّن	-11351
▁غضبا	-11352
▁غياب	-11353
▁فإنّ	-11354
▁فشلت	-11355
▁فعلي	-11356
▁فكّر	-11357
▁قامة	-11358
▁قدمت	-11359
▁قرار	-11360
▁قرية	-11361
▁قضيت	-11362
▁قطعة	-11363
▁قطعت	-11364
▁قلتُ	-11365
▁قلقا	-11366
▁قوية	-11367
▁كأنّ	-11368
▁كايت	-11369
▁كوبي	-11370
▁كُنت	-11371
▁لأهل	-11372
▁لأول	-11373
▁لابد	-11374
▁لابن	-11375
▁لعدم	-11376
▁لوسي	-11377
▁مئات	-11378
▁ماضي	-11379
▁مرآة	-11380
▁مراه	-11381
▁مريم	-11382
▁مزعج	-11383
▁مضرب	-11384
▁معرف	-11385
▁ملاب	-11386
▁ملكي	-11387
▁مملة	-11388
▁منصب	-11389
▁مهند	-11390
▁مُست	-11391
▁نأخذ	-11392
▁نسخة	-11393
▁نظام	-11394
▁نظّف	-11395
▁نملك	-11396
▁نهار	-11397
▁نومه	-11398
▁هادئ	-11399
▁وإذا	-11400
▁واثق	-11401
▁واجب	-11402
▁واست	-11403
▁والك	-11404
▁والو	-11405
▁وصول	-11406
▁وقفت	-11407
▁وليس	-11408
▁ويكي	-11409
▁وَال	-11410
▁ياكل	-11411
▁يحبك	-11412
▁يحسب	-11413
▁يخرج	-11414
▁يخشى	-11415
▁يدخن	-11416
▁يدير	-11417
▁يذكر	-11418
▁يراق	-11419
▁يسبب	-11420
▁يطبخ	-11421
▁يطرح	-11422
▁يفضل	-11423
▁يفوز	-11424
▁يقلق	-11425
▁يكذب	-11426
▁ينبح	-11427
▁ينفع	-11428
▁يورو	-11429
▁يوصل	-11430
ainted	-11431
cience	-11432
hanged	-11433
ilosop	-11434
pelled	-11435
phabet	-11436
يارتنا	-11437
▁Ahmad	-11438
▁Arabs	-11439
▁Brown	-11440
▁Brush	-11441
▁Clear	-11442
▁First	-11443
▁Jugur	-11444
▁Leban	-11445
▁Peace	-11446
▁Press	-11447
▁Saudi	-11448
▁Strip	-11449
▁Texas	-11450
▁Timmy	-11451
▁Water	-11452
▁Wikip	-11453
▁added	-11454
▁badly	-11455
▁blank	-11456
▁burns	-11457
▁chief	-11458
▁couch	-11459
▁cough	-11460
▁cover	-11461
▁cured	-11462
▁delet	-11463
▁dozen	-11464
▁focus	-11465
▁guide	-11466
▁hired	-11467
▁horri	-11468
▁ident	-11469
▁illeg	-11470
▁magic	-11471
▁meals	-11472
▁moder	-11473
▁mouse	-11474
▁mustn	-11475
▁noobs	-11476
▁obser	-11477
▁pound	-11478
▁punch	-11479
▁pupil	-11480
▁raped	-11481
▁reads	-11482
▁relax	-11483
▁roses	-11484
▁rough	-11485
▁salad	-11486
▁sandw	-11487
▁scold	-11488
▁seats	-11489
▁serve	-11490
▁stick	-11491
▁stops	-11492
▁swall	-11493
▁sword	-11494
▁tasty	-11495
▁waved	-11496
▁weigh	-11497
▁أراها	-11498
▁أشاهد	-11499
▁أعترف	-11500
▁أعجبت	-11501
▁أعضاء	-11502
▁أعطيت	-11503
▁أفكّر	-11504
▁أقفلت	-11505
▁أقلام	-11506
▁أناني	-11507
▁أُلقي	-11508
▁إسبوع	-11509
▁إغلاق	-11510
▁إمكان	-11511
▁اثنان	-11512
▁اختار	-11513
▁اخترع	-11514
▁استمت	-11515
▁اعتبر	-11516
▁الأدب	-11517
▁الأري	-11518
▁الأهم	-11519
▁الأور	-11520
▁الإست	-11521
▁الارت	-11522
▁التجا	-11523
▁التعب	-11524
▁التّس	-11525
▁الثقة	-11526
▁الجبن	-11527
▁الجري	-11528
▁الحاض	-11529
▁الخشب	-11530
▁الدّب	-11531
▁الدّر	-11532
▁الروم	-11533
▁الريف	-11534
▁السعر	-11535
▁السقف	-11536
▁السما	-11537
▁السوق	-11538
▁السّر	-11539
▁الصبر	-11540
▁الضيق	-11541
▁الطرق	-11542
▁الطّب	-11543
▁العال	-11544
▁العرب	-11545
▁العسل	-11546
▁العصر	-11547
▁القدر	-11548
▁الكذب	-11549
▁الكون	-11550
▁المذا	-11551
▁المصا	-11552
▁المقص	-11553
▁الموز	-11554
▁النور	-11555
▁اليون	-11556
▁انهار	-11557
▁اوكون	-11558
▁بأخرى	-11559
▁باردة	-11560
▁بالقا	-11561
▁بسيطة	-11562
▁بشأنه	-11563
▁بعضهم	-11564
▁بماذا	-11565
▁بوسعه	-11566
▁بوضوح	-11567
▁تانية	-11568
▁تبادل	-11569
▁تتوقع	-11570
▁تجارة	-11571
▁تجاوز	-11572
▁تحصّل	-11573
▁تحمّل	-11574
▁تحوّل	-11575
▁تختار	-11576
▁تخلّى	-11577
▁تستطع	-11578
▁تشاهد	-11579
▁تعاني	-11580
▁تقديم	-11581
▁تقدّم	-11582
▁تلفاز	-11583
▁تلميذ	-11584
▁تمارس	-11585
▁تواصل	-11586
▁تواعد	-11587
▁توفّي	-11588
▁توقفي	-11589
▁جعلني	-11590
▁حذاءه	-11591
▁حماية	-11592
▁حُكِم	-11593
▁خائفا	-11594
▁خاصّة	-11595
▁خطيرا	-11596
▁خمسون	-11597
▁دكتور	-11598
▁ذاهبة	-11599
▁رياضة	-11600
▁زيادة	-11601
▁سأخبر	-11602
▁سأطلب	-11603
▁سباحة	-11604
▁ستشعر	-11605
▁سرطان	-11606
▁سريري	-11607
▁سريعة	-11608
▁سلاحا	-11609
▁سنذهب	-11610
▁سويّا	-11611
▁سيخبر	-11612
▁سيعود	-11613
▁سيفعل	-11614
▁سيقضي	-11615
▁شخصًا	-11616
▁شهادة	-11617
▁صامتا	-11618
▁صديقه	-11619
▁عاماً	-11620
▁عشرون	-11621
▁علامة	-11622
▁عليكم	-11623
▁عملها	-11624
▁عنديش	-11625
▁غريبا	-11626
▁قادمة	-11627
▁قالته	-11628
▁قصيدة	-11629
▁قليلة	-11630
▁كتابه	-11631
▁كلباً	-11632
▁كولّش	-11633
▁لأكثر	-11634
▁لديكم	-11635
▁لساعة	-11636
▁لطيفة	-11637
▁للاخت	-11638
▁للشرب	-11639
▁للمال	-11640
▁للنوم	-11641
▁ليتني	-11642
▁ليسوا	-11643
▁لَقَد	-11644
▁مؤخرة	-11645
▁متزوّ	-11646
▁مثالي	-11647
▁محادث	-11648
▁محامي	-11649
▁مريحة	-11650
▁مسؤول	-11651
▁مسدّس	-11652
▁مسكون	-11653
▁مشتاق	-11654
▁مقتنع	-11655
▁مكسور	-11656
▁ممتعة	-11657
▁ممكنة	-11658
▁مواطن	-11659
▁مواقع	-11660
▁موضوع	-11661
▁نادرا	-11662
▁نديرو	-11663
▁نعسان	-11664
▁ننتظر	-11665
▁نولّي	-11666
▁نْهار	-11667
▁والدك	-11668
▁والده	-11669
▁وكذلك	-11670
▁يتغير	-11671
▁يتوجب	-11672
▁يدرّس	-11673
▁يعتمد	-11674
▁يعتنق	-11675
▁يعجبه	-11676
▁يهتمّ	-11677
▁يوافق	-11678
▁يوتوب	-11679
achache	-11680
ciation	-11681
ifornia	-11682
orcycle	-11683
ourists	-11684
stances	-11685
▁Hallow	-11686
▁Hawaii	-11687
▁Kabyle	-11688
▁Though	-11689
▁accent	-11690
▁autumn	-11691
▁beings	-11692
▁belief	-11693
▁bitter	-11694
▁chosen	-11695
▁circum	-11696
▁cities	-11697
▁colors	-11698
▁commit	-11699
▁corner	-11700
▁defend	-11701
▁distin	-11702
▁establ	-11703
▁flying	-11704
▁former	-11705
▁fundam	-11706
▁heaven	-11707
▁horror	-11708
▁hunger	-11709
▁impact	-11710
▁issues	-11711
▁kopeks	-11712
▁ladder	-11713
▁landed	-11714
▁leader	-11715
▁louder	-11716
▁object	-11717
▁orders	-11718
▁paying	-11719
▁period	-11720
▁photos	-11721
▁places	-11722
▁plants	-11723
▁possib	-11724
▁rarely	-11725
▁record	-11726
▁refuge	-11727
▁reject	-11728
▁repeat	-11729
▁riding	-11730
▁robbed	-11731
▁shadow	-11732
▁shared	-11733
▁silver	-11734
▁simply	-11735
▁sleeps	-11736
▁smoker	-11737
▁temple	-11738
▁verses	-11739
▁ابتسمت	-11740
▁ابنتها	-11741
▁اتّصال	-11742
▁استأجر	-11743
▁استغرق	-11744
▁استمعت	-11745
▁اصطدمت	-11746
▁اكتشفت	-11747
▁الأمام	-11748
▁الأوان	-11749
▁التالي	-11750
▁التكلم	-11751
▁الجدار	-11752
▁الحاجة	-11753
▁الحجاب	-11754
▁الخامس	-11755
▁الخدمة	-11756
▁الدولة	-11757
▁الدولي	-11758
▁الذكاء	-11759
▁السكين	-11760
▁السلاح	-11761
▁السّيا	-11762
▁الشباب	-11763
▁الشّيء	-11764
▁الصفحة	-11765
▁الطلاق	-11766
▁الظلام	-11767
▁العادة	-11768
▁العامة	-11769
▁العربة	-11770
▁الفائت	-11771
▁الفضاء	-11772
▁الكمان	-11773
▁اللعبة	-11774
▁المحلّ	-11775
▁المشكل	-11776
▁المهمة	-11777
▁النظام	-11778
▁اليهود	-11779
▁انفراد	-11780
▁بأربعة	-11781
▁بالملل	-11782
▁بتتكلم	-11783
▁بغرابة	-11784
▁بلقائك	-11785
▁بمفردي	-11786
▁تذكرتي	-11787
▁تذكرني	-11788
▁تزوّجت	-11789
▁تشاجرت	-11790
▁تماماً	-11791
▁تمامًا	-11792
▁ثمانية	-11793
▁جزيلاً	-11794
▁جميعكم	-11795
▁جميعًا	-11796
▁جنسيّا	-11797
▁حاسوبي	-11798
▁حقيبتك	-11799
▁حياتهم	-11800
▁رايحين	-11801
▁سابقًا	-11802
▁سبتمبر	-11803
▁ستغادر	-11804
▁عاديّة	-11805
▁علاقته	-11806
▁غالباً	-11807
▁فنجانا	-11808
▁قارورة	-11809
▁قاموسك	-11810
▁قليلاً	-11811
▁كلاهما	-11812
▁لتعلّم	-11813
▁للعشاء	-11814
▁لمعرفة	-11815
▁مألوفا	-11816
▁مايوكو	-11817
▁متعباً	-11818
▁مراقبة	-11819
▁مستيقظ	-11820
▁مسدّسا	-11821
▁مسلمون	-11822
▁مشتركة	-11823
▁ملايين	-11824
▁هاتفها	-11825
▁يتذكّر	-11826
▁يتعرّف	-11827
▁يتمتّع	-11828
▁يتمكّن	-11829
▁يحبّها	-11830
▁يساعده	-11831
▁يستخدم	-11832
▁يلعبون	-11833
▁يوغرطة	-11834
▁Congrat	-11835
▁Finally	-11836
▁Instead	-11837
▁Muiriel	-11838
▁Turkish	-11839
▁breathe	-11840
▁captain	-11841
▁charmed	-11842
▁connect	-11843
▁convert	-11844
▁crowded	-11845
▁dignity	-11846
▁dislike	-11847
▁excited	-11848
▁falling	-11849
▁follows	-11850
▁foolish	-11851
▁founded	-11852
▁handbag	-11853
▁happily	-11854
▁holding	-11855
▁kicking	-11856
▁lecture	-11857
▁massive	-11858
▁mosques	-11859
▁mothers	-11860
▁opening	-11861
▁percent	-11862
▁pianist	-11863
▁reminds	-11864
▁retired	-11865
▁seconds	-11866
▁streets	-11867
▁ticking	-11868
▁uniform	-11869
▁watches	-11870
▁weapons	-11871
▁witness	-11872
▁workers	-11873
▁wounded	-11874
▁أخبرتها	-11875
▁استراحة	-11876
▁الآخرون	-11877
▁الأجانب	-11878
▁الأسنان	-11879
▁الأفكار	-11880
▁الإتصال	-11881
▁الإسعاف	-11882
▁البوكير	-11883
▁التاسعة	-11884
▁التركيز	-11885
▁الجائزة	-11886
▁الحرارة	-11887
▁الخريطة	-11888
▁الرّاحة	-11889
▁السلامة	-11890
▁السّؤال	-11891
▁الصحيفة	-11892
▁الطيران	-11893
▁الفانتا	-11894
▁الفستان	-11895
▁الكبيرة	-11896
▁الكتابة	-11897
▁الكلاسي	-11898
▁المحكمة	-11899
▁المزرعة	-11900
▁المشترك	-11901
▁المطاعم	-11902
▁المفترض	-11903
▁المكسيك	-11904
▁اِندلعت	-11905
▁بأنفسنا	-11906
▁بالكثير	-11907
▁بمعرفتك	-11908
▁تساعدني	-11909
▁دولارات	-11910
▁ساعدتني	-11911
▁للأمراض	-11912
▁للمدرسة	-11913
▁متأكداً	-11914
▁متعطّشا	-11915
▁مدرّستي	-11916
▁مستعدّا	-11917
▁واجباتي	-11918
▁European	-11919
▁Jugurtha	-11920
▁Tourists	-11921
▁alphabet	-11922
▁attached	-11923
▁blockade	-11924
▁capacity	-11925
▁cigarett	-11926
▁comprise	-11927
▁conflict	-11928
▁constant	-11929
▁convince	-11930
▁cultural	-11931
▁disagree	-11932
▁disliked	-11933
▁expenses	-11934
▁extraord	-11935
▁includes	-11936
▁indicted	-11937
▁industry	-11938
▁injuries	-11939
▁philosop	-11940
▁position	-11941
▁practise	-11942
▁provided	-11943
▁reminded	-11944
▁screamed	-11945
▁specific	-11946
▁starting	-11947
▁summoned	-11948
▁vanished	-11949
▁الأجنبية	-11950
▁الأطبّاء	-11951
▁الاتّجاه	-11952
▁الاهتمام	-11953
▁البربرية	-11954
▁الثانوية	-11955
▁الثلاثين	-11956
▁الجنسيّة	-11957
▁الطّائرة	-11958
▁الطّريقة	-11959
▁العالمية	-11960
▁العاهرات	-11961
▁العصافير	-11962
▁الفيسبوك	-11963
▁المسرحية	-11964
▁المناسبة	-11965
▁النّوافذ	-11966
▁باستخدام	-11967
▁باستمرار	-11968
▁بالحافلة	-11969
▁بسيّارته	-11970
▁ديمقراطي	-11971
▁للتّعرّي	-11972
▁يستطيعون	-11973
▁Algerians	-11974
▁Halloween	-11975
▁Wikipedia	-11976
▁answering	-11977
▁automatic	-11978
▁collapsed	-11979
▁comprised	-11980
▁excellent	-11981
▁exchanged	-11982
▁literally	-11983
▁perfectly	-11984
▁represent	-11985
▁resembles	-11986
▁screaming	-11987
▁suffering	-11988
▁swallowed	-11989
▁استخدامها	-11990
▁California	-11991
▁collection	-11992
▁constantly	-11993
▁encouraged	-11994
▁importance	-11995
▁intentions	-11996
▁introduced	-11997
▁motorcycle	-11998
▁occupation	-11999
▁successful	-12000
▁suspicious	-12001
▁translator	-12002
▁worthwhile	-12003
▁application	-12004
▁communities	-12005
▁criticizing	-12006
▁earthquakes	-12007
▁embarrassed	-12008
▁examination	-12009
▁fundamental	-12010
▁mathematics	-12011
▁nationality	-12012
▁personality	-12013
▁possibility	-12014
▁psychiatric	-12015
▁stomachache	-12016
▁translating	-12017
▁construction	-12018
▁hospitalized	-12019
▁intelligence	-12020
▁الفلسطينيّين	-12021
▁Unfortunately	-12022
▁Congratulations	-12023
!!	-12024
"?	-12025
"؟	-12026
BT	-12027
bb	-12028
bi	-12029
fo	-12030
to	-12031
xy	-12032
،"	-12033
أَ	-12034
ئن	-12035
ذف	-12036
ذك	-12037
ذّ	-12038
سو	-12039
صى	-12040
طش	-12041
ظه	-12042
عف	-12043
فَ	-12044
فۆ	-12045
قظ	-12046
كش	-12047
ٌ،	-12048
َ؟	-12049
َض	-12050
ُس	-12051
ّأ	-12052
ْش	-12053
ْي	-12054
پي	-12055
▁$	-12056
▁u	-12057
▁٢	-12058
▁“	-12059
,00	-12060
:30	-12061
GBT	-12062
Tom	-12063
ban	-12064
cem	-12065
cue	-12066
ern	-12067
fly	-12068
for	-12069
hik	-12070
hio	-12071
hop	-12072
ics	-12073
ido	-12074
ius	-12075
kum	-12076
lal	-12077
lin	-12078
nal	-12079
oes	-12080
rig	-12081
son	-12082
thy	-12083
urs	-12084
win	-12085
أسا	-12086
ئيا	-12087
الأ	-12088
الث	-12089
امر	-12090
امه	-12091
بكة	-12092
بله	-12093
بيق	-12094
بيك	-12095
بّل	-12096
تاع	-12097
تال	-12098
تكة	-12099
تيل	-12100
ثرة	-12101
ثّر	-12102
جاة	-12103
جدت	-12104
جرب	-12105
جين	-12106
حات	-12107
حمة	-12108
خيل	-12109
داة	-12110
داث	-12111
داع	-12112
دها	-12113
دوء	-12114
دود	-12115
ديث	-12116
ذين	-12117
ذَا	-12118
ذّر	-12119
رضا	-12120
رفت	-12121
رنة	-12122
زاء	-12123
زتي	-12124
زمة	-12125
ساً	-12126
سمة	-12127
سوم	-12128
سيّ	-12129
شاه	-12130
شفي	-12131
شية	-12132
صاد	-12133
ضار	-12134
ضور	-12135
طات	-12136
طاق	-12137
طال	-12138
طرف	-12139
طها	-12140
طّن	-12141
ظري	-12142
عان	-12143
عطي	-12144
عقد	-12145
عمه	-12146
عون	-12147
عيم	-12148
غلب	-12149
فوق	-12150
قاد	-12151
قار	-12152
قدة	-12153
قرأ	-12154
قله	-12155
قيد	-12156
كلت	-12157
كهة	-12158
كيل	-12159
كًا	-12160
لاط	-12161
لحق	-12162
ليه	-12163
لّة	-12164
لّل	-12165
ميت	-12166
ميم	-12167
نتك	-12168
نجح	-12169
نجي	-12170
ندك	-12171
هدأ	-12172
واح	-12173
واه	-12174
وبه	-12175
وته	-12176
وجل	-12177
وعك	-12178
وفة	-12179
وكه	-12180
ولك	-12181
يده	-12182
َاو	-12183
َاي	-12184
َرَ	-12185
َقْ	-12186
ُكَ	-12187
ُها	-12188
ُوه	-12189
ِدَ	-12190
ّدا	-12191
ّمة	-12192
ّني	-12193
ْكَ	-12194
▁21	-12195
▁35	-12196
▁50	-12197
▁Ap	-12198
▁Fl	-12199
▁ID	-12200
▁Pr	-12201
▁Sy	-12202
▁آم	-12203
▁إش	-12204
▁بث	-12205
▁تث	-12206
▁ثق	-12207
▁خس	-12208
▁رَ	-12209
▁سؤ	-12210
▁سَ	-12211
▁شط	-12212
▁شف	-12213
▁ضا	-12214
▁فب	-12215
▁فن	-12216
▁كش	-12217
▁نر	-12218
▁وآ	-12219
▁يض	-12220
▁يْ	-12221
That	-12222
aint	-12223
alse	-12224
anic	-12225
asso	-12226
atul	-12227
bour	-12228
cher	-12229
elly	-12230
ends	-12231
ener	-12232
enth	-12233
evit	-12234
fact	-12235
food	-12236
ghan	-12237
iece	-12238
iers	-12239
igin	-12240
ilip	-12241
iron	-12242
irts	-12243
isis	-12244
itch	-12245
ival	-12246
iven	-12247
lect	-12248
look	-12249
mani	-12250
mpat	-12251
okka	-12252
onav	-12253
onto	-12254
ouds	-12255
rets	-12256
sequ	-12257
stan	-12258
ware	-12259
well	-12260
ئران	-12261
ئيّة	-12262
اعدا	-12263
اهتم	-12264
اهرة	-12265
بائن	-12266
بضّع	-12267
بنان	-12268
بيعة	-12269
تاحا	-12270
تقدم	-12271
تيّة	-12272
ثروب	-12273
جنون	-12274
حدّق	-12275
دارس	-12276
دخال	-12277
ديقي	-12278
رائه	-12279
راهي	-12280
رجمة	-12281
رويج	-12282
رّضا	-12283
سائح	-12284
ساني	-12285
سبول	-12286
ستاذ	-12287
سرته	-12288
سلحة	-12289
شرين	-12290
صرّف	-12291
صيلة	-12292
ضبان	-12293
طائك	-12294
طيرة	-12295
عاون	-12296
عتبر	-12297
عتمد	-12298
عتني	-12299
عمار	-12300
فذته	-12301
قاسم	-12302
قراء	-12303
قّبت	-12304
كاسو	-12305
لاتة	-12306
لاست	-12307
لعاب	-12308
ليات	-12309
ناسب	-12310
ناقش	-12311
نزير	-12312
هارا	-12313
وانه	-12314
وبته	-12315
وحدة	-12316
ودين	-12317
وسطى	-12318
وعات	-12319
ولات	-12320
ولني	-12321
ونات	-12322
ونتو	-12323
ياتي	-12324
َانَ	-12325
ّلام	-12326
ّنيا	-12327
▁193	-12328
▁90%	-12329
▁Acc	-12330
▁Adm	-12331
▁Ali	-12332
▁Ant	-12333
▁Inv	-12334
▁Oct	-12335
▁Pic	-12336
▁Pro	-12337
▁Rep	-12338
▁Rob	-12339
▁USA	-12340
▁Ven	-12341
▁Vis	-12342
▁Won	-12343
▁adj	-12344
▁alt	-12345
▁anx	-12346
▁aud	-12347
▁cla	-12348
▁deg	-12349
▁din	-12350
▁dug	-12351
▁emp	-12352
▁fed	-12353
▁god	-12354
▁jun	-12355
▁laz	-12356
▁low	-12357
▁mic	-12358
▁nap	-12359
▁nin	-12360
▁nut	-12361
▁obs	-12362
▁phr	-12363
▁toy	-12364
▁ult	-12365
▁unl	-12366
▁uns	-12367
▁أحر	-12368
▁أرك	-12369
▁أفع	-12370
▁أقت	-12371
▁أَب	-12372
▁أَح	-12373
▁أَم	-12374
▁أُم	-12375
▁إخت	-12376
▁إِل	-12377
▁إِن	-12378
▁اصب	-12379
▁امس	-12380
▁ببط	-12381
▁بتم	-12382
▁بسم	-12383
▁بعم	-12384
▁بمن	-12385
▁بند	-12386
▁تأت	-12387
▁تبق	-12388
▁تتك	-12389
▁تتّ	-12390
▁تخل	-12391
▁ترت	-12392
▁تصف	-12393
▁تفع	-12394
▁تقف	-12395
▁تكت	-12396
▁تلف	-12397
▁تيك	-12398
▁تَح	-12399
▁ثرو	-12400
▁ثري	-12401
▁ثقة	-12402
▁جرح	-12403
▁جيت	-12404
▁حجم	-12405
▁حقن	-12406
▁حلو	-12407
▁حمى	-12408
▁حنا	-12409
▁حية	-12410
▁خاف	-12411
▁داف	-12412
▁درك	-12413
▁دَع	-12414
▁ذوق	-12415
▁رحت	-12416
▁رحل	-12417
▁رمز	-12418
▁رمى	-12419
▁روب	-12420
▁روى	-12421
▁ريا	-12422
▁زيا	-12423
▁سأس	-12424
▁سان	-12425
▁ستُ	-12426
▁سجل	-12427
▁سيس	-12428
▁شاح	-12429
▁شرط	-12430
▁شوي	-12431
▁صبو	-12432
▁صدر	-12433
▁صّح	-12434
▁طائ	-12435
▁عار	-12436
▁عذر	-12437
▁عطل	-12438
▁عظي	-12439
▁عقب	-12440
▁عيّ	-12441
▁غلي	-12442
▁غمس	-12443
▁فتّ	-12444
▁فرو	-12445
▁فسأ	-12446
▁فست	-12447
▁فمه	-12448
▁فهي	-12449
▁قبع	-12450
▁قبي	-12451
▁قبّ	-12452
▁كأس	-12453
▁كره	-12454
▁لاز	-12455
▁لتف	-12456
▁لتو	-12457
▁لعي	-12458
▁لمح	-12459
▁متم	-12460
▁محم	-12461
▁مدّ	-12462
▁مشك	-12463
▁مشى	-12464
▁مصد	-12465
▁مظه	-12466
▁مكر	-12467
▁ملح	-12468
▁مهن	-12469
▁مور	-12470
▁موع	-12471
▁موه	-12472
▁مُم	-12473
▁نجى	-12474
▁نحل	-12475
▁نشي	-12476
▁نفذ	-12477
▁نمط	-12478
▁نهر	-12479
▁نيو	-12480
▁هوَ	-12481
▁وأك	-12482
▁واد	-12483
▁ورق	-12484
▁وقد	-12485
▁يتّ	-12486
▁يرن	-12487
▁يشت	-12488
▁يضع	-12489
▁يقف	-12490
▁يمت	-12491
▁يمس	-12492
▁ينه	-12493
▁يَج	-12494
▁يُو	-12495
adays	-12496
alled	-12497
ample	-12498
arant	-12499
arter	-12500
asses	-12501
asted	-12502
asure	-12503
atter	-12504
attoo	-12505
eless	-12506
erves	-12507
flies	-12508
gency	-12509
happy	-12510
iders	-12511
iment	-12512
inent	-12513
isted	-12514
itary	-12515
itter	-12516
known	-12517
olves	-12518
oogle	-12519
oured	-12520
raise	-12521
rices	-12522
store	-12523
usted	-12524
ئتمان	-12525
بيديا	-12526
بيعية	-12527
تّحدة	-12528
خاطرش	-12529
راعات	-12530
ريقية	-12531
سائلا	-12532
طالية	-12533
ظارات	-12534
غادرة	-12535
فضّلة	-12536
ليفون	-12537
مارسة	-12538
ورپري	-12539
وسيقا	-12540
ولوجي	-12541
ويّات	-12542
يادته	-12543
يارته	-12544
ُكُمْ	-12545
▁911.	-12546
▁Anne	-12547
▁Cats	-12548
▁Char	-12549
▁Comp	-12550
▁Cont	-12551
▁Fire	-12552
▁Iran	-12553
▁Long	-12554
▁Mark	-12555
▁Next	-12556
▁Scot	-12557
▁Sent	-12558
▁Sept	-12559
▁Wood	-12560
▁acts	-12561
▁asso	-12562
▁band	-12563
▁calc	-12564
▁calm	-12565
▁cart	-12566
▁chat	-12567
▁chem	-12568
▁choo	-12569
▁code	-12570
▁debt	-12571
▁dent	-12572
▁dess	-12573
▁disp	-12574
▁dude	-12575
▁dumb	-12576
▁empt	-12577
▁eter	-12578
▁fond	-12579
▁grou	-12580
▁hall	-12581
▁heat	-12582
▁isol	-12583
▁jour	-12584
▁lack	-12585
▁lent	-12586
▁lion	-12587
▁lips	-12588
▁loss	-12589
▁oper	-12590
▁peel	-12591
▁pens	-12592
▁perm	-12593
▁porn	-12594
▁pron	-12595
▁reve	-12596
▁sale	-12597
▁scar	-12598
▁scor	-12599
▁soap	-12600
▁sout	-12601
▁stat	-12602
▁tend	-12603
▁tone	-12604
▁trap	-12605
▁unex	-12606
▁west	-12607
▁zone	-12608
▁آثار	-12609
▁أبدو	-12610
▁أبيك	-12611
▁أجاب	-12612
▁أخوك	-12613
▁أرغم	-12614
▁أركض	-12615
▁أزال	-12616
▁أسعد	-12617
▁أصوا	-12618
▁أضاع	-12619
▁أطفأ	-12620
▁أعزف	-12621
▁أعطت	-12622
▁أعلن	-12623
▁أغرب	-12624
▁أغسل	-12625
▁أكنت	-12626
▁ألقت	-12627
▁أمزح	-12628
▁أمشي	-12629
▁أمّا	-12630
▁أنته	-12631
▁أنشأ	-12632
▁أنكِ	-12633
▁أهلا	-12634
▁أُحض	-12635
▁إلهي	-12636
▁إنّي	-12637
▁إياه	-12638
▁احفظ	-12639
▁اخبر	-12640
▁اخلع	-12641
▁استد	-12642
▁اسكت	-12643
▁اضطر	-12644
▁اغلق	-12645
▁الأق	-12646
▁الاس	-12647
▁البو	-12648
▁التش	-12649
▁الحز	-12650
▁الزر	-12651
▁الطا	-12652
▁الغر	-12653
▁الفن	-12654
▁القي	-12655
▁الكا	-12656
▁النو	-12657
▁الهي	-12658
▁الوث	-12659
▁انسَ	-12660
▁ايضا	-12661
▁بالا	-12662
▁بالب	-12663
▁بديل	-12664
▁بدين	-12665
▁براء	-12666
▁بشخص	-12667
▁بصبر	-12668
▁بعثت	-12669
▁بعدم	-12670
▁بعين	-12671
▁بكيت	-12672
▁بمقد	-12673
▁بنجا	-12674
▁بواج	-12675
▁بيضة	-12676
▁تؤمن	-12677
▁تاعي	-12678
▁تجرب	-12679
▁تحبه	-12680
▁تحته	-12681
▁تحرك	-12682
▁تحسن	-12683
▁تخفي	-12684
▁تدري	-12685
▁تران	-12686
▁ترفع	-12687
▁تزور	-12688
▁تسوق	-12689
▁تشوف	-12690
▁تصرف	-12691
▁تضحك	-12692
▁تطبخ	-12693
▁تغسل	-12694
▁تفتح	-12695
▁تلبس	-12696
▁تمثل	-12697
▁تنجح	-12698
▁تنجو	-12699
▁تهدر	-12700
▁تهضر	-12701
▁توني	-12702
▁جعلك	-12703
▁حادة	-12704
▁حدوث	-12705
▁حركة	-12706
▁حصان	-12707
▁حضور	-12708
▁حلول	-12709
▁حوله	-12710
▁خالص	-12711
▁خطأً	-12712
▁خطاب	-12713
▁دارو	-12714
▁ديسي	-12715
▁رأسك	-12716
▁رصاص	-12717
▁روحك	-12718
▁زهرة	-12719
▁سارا	-12720
▁ساني	-12721
▁ساهم	-12722
▁سررت	-12723
▁سلّم	-12724
▁سمين	-12725
▁سورة	-12726
▁سياح	-12727
▁سيدي	-12728
▁سيكل	-12729
▁سيّء	-12730
▁شابا	-12731
▁شرطة	-12732
▁صحاب	-12733
▁صفحة	-12734
▁صفعت	-12735
▁ضحّى	-12736
▁ضخمة	-12737
▁ضدنا	-12738
▁طارت	-12739
▁طعمه	-12740
▁طلبة	-12741
▁طيبة	-12742
▁طُرد	-12743
▁ظهرت	-12744
▁عادا	-12745
▁عازف	-12746
▁عثرت	-12747
▁عرضه	-12748
▁علاش	-12749
▁علمي	-12750
▁عنّي	-12751
▁غسلت	-12752
▁فأنت	-12753
▁فرّت	-12754
▁فوضى	-12755
▁فيلم	-12756
▁قبول	-12757
▁قضية	-12758
▁قلمك	-12759
▁قلمي	-12760
▁قيام	-12761
▁قَال	-12762
▁كأنك	-12763
▁كانو	-12764
▁كانَ	-12765
▁كريم	-12766
▁لأبي	-12767
▁لزوج	-12768
▁لسوء	-12769
▁لعبت	-12770
▁لغزا	-12771
▁لكلّ	-12772
▁لمّا	-12773
▁لنرى	-12774
▁لَمْ	-12775
▁لِمَ	-12776
▁مارس	-12777
▁مارك	-12778
▁مايو	-12779
▁متسا	-12780
▁مثال	-12781
▁مجرم	-12782
▁مخرج	-12783
▁مذهل	-12784
▁مرتب	-12785
▁مستع	-12786
▁مسرح	-12787
▁مشاع	-12788
▁مشيت	-12789
▁مصنع	-12790
▁مضطر	-12791
▁معاي	-12792
▁معجز	-12793
▁معطف	-12794
▁ملاك	-12795
▁منطق	-12796
▁منين	-12797
▁مهمّ	-12798
▁مياه	-12799
▁نارا	-12800
▁نبقى	-12801
▁نحبّ	-12802
▁نحصل	-12803
▁نسبة	-12804
▁نشأت	-12805
▁نشوف	-12806
▁نصبح	-12807
▁نصنع	-12808
▁نصيح	-12809
▁نكره	-12810
▁نوعا	-12811
▁هيئة	-12812
▁هييا	-12813
▁هيّا	-12814
▁وإلا	-12815
▁وإلى	-12816
▁واسع	-12817
▁والا	-12818
▁وجهك	-12819
▁وسيم	-12820
▁وشنو	-12821
▁وعلى	-12822
▁وغير	-12823
▁وقته	-12824
▁وكان	-12825
▁ولاّ	-12826
▁وهذه	-12827
▁يأمل	-12828
▁يؤثر	-12829
▁يتصل	-12830
▁يتفق	-12831
▁يجلب	-12832
▁يجمع	-12833
▁يحسن	-12834
▁يخطر	-12835
▁يخطط	-12836
▁يدعو	-12837
▁يدها	-12838
▁يرسل	-12839
▁يرفع	-12840
▁يشبه	-12841
▁يصلح	-12842
▁يغسل	-12843
▁يغفر	-12844
▁يغني	-12845
▁يقيم	-12846
▁يكسب	-12847
▁يلبث	-12848
▁يمزح	-12849
▁ينجح	-12850
▁ينوي	-12851
▁يومي	-12852
aching	-12853
antage	-12854
arried	-12855
atists	-12856
efcase	-12857
enefic	-12858
engers	-12859
ential	-12860
erable	-12861
gratul	-12862
issors	-12863
ternal	-12864
thirty	-12865
urance	-12866
usting	-12867
اهتمام	-12868
باحيّة	-12869
ولندية	-12870
ّنزانة	-12871
▁1990.	-12872
▁1994.	-12873
▁2013.	-12874
▁2018.	-12875
▁Brian	-12876
▁Drive	-12877
▁Greek	-12878
▁Hokka	-12879
▁Kenji	-12880
▁March	-12881
▁Money	-12882
▁Stand	-12883
▁State	-12884
▁actor	-12885
▁basis	-12886
▁bills	-12887
▁bleed	-12888
▁cance	-12889
▁candy	-12890
▁cheer	-12891
▁clubs	-12892
▁colds	-12893
▁colon	-12894
▁concl	-12895
▁demon	-12896
▁depri	-12897
▁dirty	-12898
▁earns	-12899
▁enorm	-12900
▁fairy	-12901
▁false	-12902
▁fence	-12903
▁field	-12904
▁goods	-12905
▁hesit	-12906
▁holes	-12907
▁indiv	-12908
▁joint	-12909
▁kinds	-12910
▁maths	-12911
▁maybe	-12912
▁media	-12913
▁miles	-12914
▁mirac	-12915
▁pants	-12916
▁paran	-12917
▁penal	-12918
▁poems	-12919
▁prank	-12920
▁pride	-12921
▁prove	-12922
▁rainy	-12923
▁sched	-12924
▁shame	-12925
▁sheep	-12926
▁silly	-12927
▁spots	-12928
▁stage	-12929
▁stamp	-12930
▁stink	-12931
▁stock	-12932
▁stuck	-12933
▁style	-12934
▁sungl	-12935
▁theft	-12936
▁third	-12937
▁ticks	-12938
▁tools	-12939
▁turns	-12940
▁wears	-12941
▁youth	-12942
▁أتحمل	-12943
▁أحداً	-12944
▁أحدًا	-12945
▁أخبار	-12946
▁أردتُ	-12947
▁أستاذ	-12948
▁أسماء	-12949
▁أسمعك	-12950
▁أصبحا	-12951
▁أضعاف	-12952
▁أعتمد	-12953
▁أعرفك	-12954
▁أعندك	-12955
▁أغادر	-12956
▁أفلام	-12957
▁أقترح	-12958
▁أقلعت	-12959
▁أكلنا	-12960
▁أمرًا	-12961
▁أنحاء	-12962
▁أنقذت	-12963
▁أهناك	-12964
▁أوراق	-12965
▁أوقات	-12966
▁أولاً	-12967
▁أُحضر	-12968
▁إبنها	-12969
▁إدمان	-12970
▁إعجاب	-12971
▁إلقاء	-12972
▁إياها	-12973
▁ابنتي	-12974
▁اتكلم	-12975
▁اثنين	-12976
▁احتفظ	-12977
▁اخترت	-12978
▁استحم	-12979
▁استرح	-12980
▁اشتقت	-12981
▁اضطرّ	-12982
▁اعتدت	-12983
▁افعله	-12984
▁اقترا	-12985
▁الأمم	-12986
▁الابت	-12987
▁الارض	-12988
▁الامر	-12989
▁الثمن	-12990
▁الجبل	-12991
▁الجرح	-12992
▁الجعة	-12993
▁الجنة	-12994
▁الحار	-12995
▁الحقّ	-12996
▁الخبر	-12997
▁الديم	-12998
▁السلة	-12999
▁السير	-13000
▁الشعب	-13001
▁الصحن	-13002
▁الصنا	-13003
▁الصّك	-13004
▁الضحك	-13005
▁الطبخ	-13006
▁الفتى	-13007
▁الفير	-13008
▁الكعك	-13009
▁الكوك	-13010
▁اللات	-13011
▁المؤس	-13012
▁المرش	-13013
▁المقب	-13014
▁الموظ	-13015
▁الوزن	-13016
▁الّتي	-13017
▁انضمّ	-13018
▁بأنني	-13019
▁بارزا	-13020
▁باكرا	-13021
▁بالاك	-13022
▁بالحب	-13023
▁بالطّ	-13024
▁بالعب	-13025
▁بالله	-13026
▁بجروح	-13027
▁بجوار	-13028
▁بحالة	-13029
▁بدونك	-13030
▁براون	-13031
▁براين	-13032
▁برفقة	-13033
▁بريدي	-13034
▁بساطة	-13035
▁بشدّة	-13036
▁بصديق	-13037
▁بعدها	-13038
▁بعضها	-13039
▁بقليل	-13040
▁بقوّة	-13041
▁بيتها	-13042
▁بيضاء	-13043
▁تأثير	-13044
▁تأمين	-13045
▁تتأخر	-13046
▁تتركه	-13047
▁تحافظ	-13048
▁تحبها	-13049
▁تخونه	-13050
▁تراهُ	-13051
▁تركني	-13052
▁تساءل	-13053
▁تصدّق	-13054
▁تعافى	-13055
▁تعامل	-13056
▁تعرفه	-13057
▁تقاطع	-13058
▁تقاعد	-13059
▁تقترح	-13060
▁تكلفة	-13061
▁تكوين	-13062
▁تلاتة	-13063
▁تمانع	-13064
▁تنتهي	-13065
▁تواجه	-13066
▁توفيت	-13067
▁توقعت	-13068
▁جاهزة	-13069
▁جرائم	-13070
▁جيدًا	-13071
▁حاليا	-13072
▁حذاءك	-13073
▁حزينة	-13074
▁خائفة	-13075
▁خاطئا	-13076
▁ديفيد	-13077
▁دّنيا	-13078
▁ذراعي	-13079
▁رأسها	-13080
▁رؤيتك	-13081
▁رئيسي	-13082
▁راهيش	-13083
▁زوجتك	-13084
▁سأحضر	-13085
▁سأطلق	-13086
▁سؤالك	-13087
▁سؤالي	-13088
▁سافرت	-13089
▁سعيدٌ	-13090
▁سمحلي	-13091
▁سمعته	-13092
▁سمعتُ	-13093
▁سنأكل	-13094
▁سيأخذ	-13095
▁سيّئة	-13096
▁شأنها	-13097
▁شابّا	-13098
▁شعبية	-13099
▁شكرًا	-13100
▁شوارع	-13101
▁صعوبة	-13102
▁صفعته	-13103
▁صناعة	-13104
▁طاولة	-13105
▁طعمها	-13106
▁عامين	-13107
▁عليّا	-13108
▁فرحان	-13109
▁فلكار	-13110
▁فنجان	-13111
▁قاسية	-13112
▁قدميه	-13113
▁كأنّه	-13114
▁كاملا	-13115
▁كتابي	-13116
▁كسائح	-13117
▁كطبيب	-13118
▁كفاية	-13119
▁كيلوم	-13120
▁كَانَ	-13121
▁لأجلك	-13122
▁لأفعل	-13123
▁لأنهي	-13124
▁لحادث	-13125
▁لديهِ	-13126
▁لفريد	-13127
▁للبحث	-13128
▁للبيع	-13129
▁لنبدأ	-13130
▁لواحد	-13131
▁لوجود	-13132
▁لِتوم	-13133
▁متوسط	-13134
▁مثلها	-13135
▁محافظ	-13136
▁محمّد	-13137
▁مخطئا	-13138
▁مرارا	-13139
▁مربّى	-13140
▁مساحة	-13141
▁مسبقا	-13142
▁مستوى	-13143
▁مسرور	-13144
▁مسموح	-13145
▁مطلوب	-13146
▁مظلمة	-13147
▁مكانه	-13148
▁مكانٍ	-13149
▁ممتعا	-13150
▁نتكلم	-13151
▁نتيجة	-13152
▁نواجه	-13153
▁هاداك	-13154
▁هاكدا	-13155
▁هاواي	-13156
▁هواتف	-13157
▁وإنما	-13158
▁وجدته	-13159
▁ولكني	-13160
▁وليلى	-13161
▁وهناك	-13162
▁وُجدت	-13163
▁يتصرف	-13164
▁يدمّر	-13165
▁يصطحب	-13166
▁يعنيك	-13167
▁يفعله	-13168
▁يناسب	-13169
▁ينظّف	-13170
assador	-13171
ensable	-13172
hearted	-13173
iculous	-13174
ometers	-13175
ritious	-13176
sidered	-13177
ustomed	-13178
غانستان	-13179
▁Afghan	-13180
▁Africa	-13181
▁Arabia	-13182
▁Armani	-13183
▁Before	-13184
▁Better	-13185
▁Change	-13186
▁Darwin	-13187
▁During	-13188
▁Greece	-13189
▁Health	-13190
▁Prices	-13191
▁Venice	-13192
▁abused	-13193
▁action	-13194
▁altern	-13195
▁amount	-13196
▁assume	-13197
▁beauty	-13198
▁beside	-13199
▁bright	-13200
▁career	-13201
▁carpet	-13202
▁clouds	-13203
▁cooper	-13204
▁copies	-13205
▁crisis	-13206
▁damage	-13207
▁denied	-13208
▁depart	-13209
▁design	-13210
▁desper	-13211
▁disres	-13212
▁dollar	-13213
▁dreamt	-13214
▁extent	-13215
▁figure	-13216
▁fooled	-13217
▁forest	-13218
▁freely	-13219
▁genius	-13220
▁gentle	-13221
▁global	-13222
▁golden	-13223
▁grades	-13224
▁handle	-13225
▁higher	-13226
▁hoping	-13227
▁hosted	-13228
▁hotels	-13229
▁humili	-13230
▁inevit	-13231
▁intrig	-13232
▁jacket	-13233
▁lately	-13234
▁laughs	-13235
▁loving	-13236
▁method	-13237
▁modern	-13238
▁monkey	-13239
▁nearby	-13240
▁origin	-13241
▁pissed	-13242
▁poetry	-13243
▁regist	-13244
▁resort	-13245
▁safely	-13246
▁smiles	-13247
▁snakes	-13248
▁source	-13249
▁strict	-13250
▁supper	-13251
▁sympat	-13252
▁tattoo	-13253
▁trains	-13254
▁uncons	-13255
▁unless	-13256
▁wishes	-13257
▁worker	-13258
▁writer	-13259
▁أخبرتك	-13260
▁أخيرًا	-13261
▁أعرفها	-13262
▁أعطتني	-13263
▁أفعلها	-13264
▁أقنعته	-13265
▁إدانته	-13266
▁اتركني	-13267
▁ارتكبت	-13268
▁استلمت	-13269
▁اعتقال	-13270
▁اعتماد	-13271
▁الأنمي	-13272
▁الباقي	-13273
▁البريط	-13274
▁البطيخ	-13275
▁التقدم	-13276
▁الجليد	-13277
▁الحالة	-13278
▁الحالي	-13279
▁الحذاء	-13280
▁الحصان	-13281
▁الخطاب	-13282
▁الخمسة	-13283
▁الخيول	-13284
▁الدوام	-13285
▁الدّول	-13286
▁الرؤية	-13287
▁الرابع	-13288
▁الرصاص	-13289
▁الرّجل	-13290
▁الزبدة	-13291
▁الساخن	-13292
▁الستين	-13293
▁السّبب	-13294
▁الشعور	-13295
▁الشمال	-13296
▁الصّعب	-13297
▁الصّوت	-13298
▁الصّور	-13299
▁الضجيج	-13300
▁الغولف	-13301
▁الكساد	-13302
▁اللحظة	-13303
▁اللقاء	-13304
▁اللوحة	-13305
▁اللّون	-13306
▁المخرج	-13307
▁المدرس	-13308
▁المدني	-13309
▁المسرح	-13310
▁المصنع	-13311
▁المعيش	-13312
▁المقال	-13313
▁المنبه	-13314
▁النوبز	-13315
▁الهنود	-13316
▁الوسطى	-13317
▁باكراً	-13318
▁بالألم	-13319
▁بالجوع	-13320
▁باللون	-13321
▁بالمئة	-13322
▁بالماء	-13323
▁بالمال	-13324
▁برسالة	-13325
▁بشؤونه	-13326
▁بصراحة	-13327
▁بطاقات	-13328
▁بنفسها	-13329
▁بيكاسو	-13330
▁تتركني	-13331
▁تتعلّم	-13332
▁تجعلني	-13333
▁تحصّلت	-13334
▁تستسلم	-13335
▁تعقّبت	-13336
▁تعلمون	-13337
▁تفاصيل	-13338
▁تفعلها	-13339
▁توقّفت	-13340
▁تيكساس	-13341
▁حاولنا	-13342
▁حياتنا	-13343
▁دولارا	-13344
▁رسائلا	-13345
▁زيارتك	-13346
▁سأنتقل	-13347
▁سيارات	-13348
▁صباحاً	-13349
▁طريقنا	-13350
▁طويلاً	-13351
▁عائلتك	-13352
▁عائلته	-13353
▁عمليّة	-13354
▁عنوانك	-13355
▁فصاعدا	-13356
▁فيسبوك	-13357
▁كاميرا	-13358
▁كبيراً	-13359
▁كلّيّة	-13360
▁كيفيّة	-13361
▁لإقلال	-13362
▁لثلاثة	-13363
▁لدقيقة	-13364
▁للسياح	-13365
▁للشرطة	-13366
▁للكلاب	-13367
▁متأخرا	-13368
▁متزوجة	-13369
▁مجراها	-13370
▁مرّتين	-13371
▁مستقبل	-13372
▁معاملة	-13373
▁معتادة	-13374
▁معروفا	-13375
▁ملاحظة	-13376
▁مواعدة	-13377
▁ميلادي	-13378
▁نادراً	-13379
▁ناريّا	-13380
▁نافذته	-13381
▁ناولني	-13382
▁نستعمل	-13383
▁نستنّا	-13384
▁والدتك	-13385
▁والدتي	-13386
▁والناس	-13387
▁وحيداً	-13388
▁وظيفتك	-13389
▁وظيفتي	-13390
▁يتساءل	-13391
▁يتعاطى	-13392
▁يتلقّى	-13393
▁يتوقّف	-13394
▁يستحسن	-13395
▁يستمتع	-13396
▁يستمرّ	-13397
▁يفهمني	-13398
▁ينتظرك	-13399
onavirus	-13400
▁African	-13401
▁Another	-13402
▁Blessed	-13403
▁Goodbye	-13404
▁Lebanon	-13405
▁October	-13406
▁Parents	-13407
▁Persian	-13408
▁Picasso	-13409
▁Shouldn	-13410
▁Silence	-13411
▁Toronto	-13412
▁Turkmen	-13413
▁Whoever	-13414
▁adapted	-13415
▁alright	-13416
▁ancient	-13417
▁apology	-13418
▁arrival	-13419
▁artists	-13420
▁atheist	-13421
▁average	-13422
▁bananas	-13423
▁bastard	-13424
▁benefit	-13425
▁borders	-13426
▁capable	-13427
▁chapter	-13428
▁cheaper	-13429
▁chicken	-13430
▁climate	-13431
▁closely	-13432
▁complim	-13433
▁consent	-13434
▁content	-13435
▁couples	-13436
▁curious	-13437
▁defense	-13438
▁deleted	-13439
▁delight	-13440
▁dessert	-13441
▁doctors	-13442
▁efforts	-13443
▁elected	-13444
▁element	-13445
▁emerged	-13446
▁episode	-13447
▁fifteen	-13448
▁fortune	-13449
▁general	-13450
▁guarant	-13451
▁heavier	-13452
▁imposed	-13453
▁offence	-13454
▁officer	-13455
▁painful	-13456
▁parking	-13457
▁praying	-13458
▁process	-13459
▁prosper	-13460
▁reality	-13461
▁reasons	-13462
▁recover	-13463
▁ruining	-13464
▁screams	-13465
▁selling	-13466
▁showing	-13467
▁spilled	-13468
▁surgeon	-13469
▁tension	-13470
▁towards	-13471
▁trained	-13472
▁unhappy	-13473
▁univers	-13474
▁useless	-13475
▁winning	-13476
▁أخبريني	-13477
▁إنجلترا	-13478
▁اسبانيا	-13479
▁استمتعت	-13480
▁الأحياء	-13481
▁الأريكة	-13482
▁الأزواج	-13483
▁الأستاذ	-13484
▁الأعمال	-13485
▁الأقدام	-13486
▁الألعاب	-13487
▁الألماس	-13488
▁الأمراض	-13489
▁الأمواج	-13490
▁الأواني	-13491
▁الإسبوع	-13492
▁الاسبوع	-13493
▁البساطة	-13494
▁البضاعة	-13495
▁التركية	-13496
▁الجريدة	-13497
▁الحفلات	-13498
▁الدراسي	-13499
▁الدّروس	-13500
▁الروسية	-13501
▁الرّحيل	-13502
▁الزجاجة	-13503
▁الزلازل	-13504
▁السياسي	-13505
▁السّرير	-13506
▁الشخصية	-13507
▁الشعرية	-13508
▁الشيطان	-13509
▁الضروري	-13510
▁الطّعام	-13511
▁العائلة	-13512
▁العاصفة	-13513
▁العالمي	-13514
▁الفئران	-13515
▁الفاكهة	-13516
▁الفنادق	-13517
▁القصيدة	-13518
▁القضبان	-13519
▁القواعد	-13520
▁الكورية	-13521
▁المساجد	-13522
▁المعذرة	-13523
▁المقدّس	-13524
▁الممرضة	-13525
▁المنازل	-13526
▁النتيجة	-13527
▁النرويج	-13528
▁اليهودي	-13529
▁اليومية	-13530
▁اليونان	-13531
▁انجليزي	-13532
▁اِشتريت	-13533
▁بالجلوس	-13534
▁بالجوار	-13535
▁بالخارج	-13536
▁بالشرطة	-13537
▁بالقيام	-13538
▁بحياتها	-13539
▁تقريباً	-13540
▁جامعيّة	-13541
▁سأساعدك	-13542
▁سيساعدك	-13543
▁صداقتنا	-13544
▁علابالي	-13545
▁عنصريّا	-13546
▁فبإمكان	-13547
▁لأمريكا	-13548
▁لاصطحاب	-13549
▁لمشاهدة	-13550
▁لمقابلة	-13551
▁مارانيش	-13552
▁يعتقدون	-13553
▁Hokkaido	-13554
▁Language	-13555
▁Somebody	-13556
▁Teachers	-13557
▁accompan	-13558
▁argument	-13559
▁basement	-13560
▁behavior	-13561
▁benefits	-13562
▁demanded	-13563
▁diseases	-13564
▁divorced	-13565
▁document	-13566
▁elevator	-13567
▁engineer	-13568
▁expelled	-13569
▁families	-13570
▁football	-13571
▁freezing	-13572
▁generous	-13573
▁humanity	-13574
▁injected	-13575
▁insisted	-13576
▁isolated	-13577
▁midnight	-13578
▁mountain	-13579
▁nonsense	-13580
▁particip	-13581
▁password	-13582
▁positive	-13583
▁potatoes	-13584
▁properly	-13585
▁refugees	-13586
▁relative	-13587
▁required	-13588
▁scissors	-13589
▁shooting	-13590
▁shoulder	-13591
▁stranger	-13592
▁stronger	-13593
▁talented	-13594
▁teenager	-13595
▁terribly	-13596
▁textbook	-13597
▁violence	-13598
▁إلكتروني	-13599
▁الأبرياء	-13600
▁الأربعين	-13601
▁الأساسية	-13602
▁الإمتحان	-13603
▁الإنتظار	-13604
▁البرازيل	-13605
▁التفاصيل	-13606
▁التّصوير	-13607
▁السّابقة	-13608
▁السّفينة	-13609
▁السّيطرة	-13610
▁الطبيعية	-13611
▁العبريّة	-13612
▁المتّحدة	-13613
▁المعلومة	-13614
▁المفضّلة	-13615
▁النظارات	-13616
▁بإمكانها	-13617
▁بالرّاحة	-13618
▁بالسعادة	-13619
▁بالعيادة	-13620
▁بالقاهرة	-13621
ثروبولوجيا	-13622
▁Sentences	-13623
▁September	-13624
▁abandoned	-13625
▁according	-13626
▁adventure	-13627
▁assaulted	-13628
▁briefcase	-13629
▁butterfly	-13630
▁congratul	-13631
▁conscious	-13632
▁contribut	-13633
▁detective	-13634
▁emergency	-13635
▁employees	-13636
▁exclaimed	-13637
▁financial	-13638
▁increased	-13639
▁instantly	-13640
▁insurance	-13641
▁interrupt	-13642
▁miserable	-13643
▁obviously	-13644
▁overnight	-13645
▁paintings	-13646
▁persuaded	-13647
▁political	-13648
▁prominent	-13649
▁recovered	-13650
▁remarried	-13651
▁sensitive	-13652
▁seriously	-13653
▁statement	-13654
▁strangers	-13655
▁الأمريكان	-13656
▁التلفزيون	-13657
▁الزّنزانة	-13658
▁المدرّسون	-13659
▁المفقودين	-13660
▁بالاهتمام	-13661
▁بالمناسبة	-13662
▁بسيّارتها	-13663
▁ويكيبيديا	-13664
▁Depression	-13665
▁accustomed	-13666
▁ambassador	-13667
▁conclusion	-13668
▁conditions	-13669
▁considered	-13670
▁conviction	-13671
▁difficulty	-13672
▁experiment	-13673
▁extremists	-13674
▁generation	-13675
▁impression	-13676
▁incredibly	-13677
▁kilometers	-13678
▁literature	-13679
▁networking	-13680
▁nutritious	-13681
▁practising	-13682
▁remarkable	-13683
▁sunglasses	-13684
▁threatened	-13685
▁throughout	-13686
▁unexpected	-13687
▁الانتخابات	-13688
▁التركمانية	-13689
▁اليابانيون	-13690
▁Afghanistan	-13691
▁complaining	-13692
▁development	-13693
▁electricity	-13694
▁experienced	-13695
▁generations	-13696
▁intelligent	-13697
▁interviewed	-13698
▁questioning	-13699
▁separatists	-13700
▁unconscious	-13701
▁الفلسطينيّة	-13702
▁Christianity	-13703
▁professional	-13704
▁translations	-13705
▁بالأمازيغيّة	-13706
▁circumstances	-13707
▁indispensable	-13708
▁unfortunately	-13709
As	-13710
He	-13711
Oh	-13712
RC	-13713
Th	-13714
To	-13715
cm	-13716
eɛ	-13717
gu	-13718
lu	-13719
ne	-13720
sa	-13721
wo	-13722
ww	-13723
yr	-13724
آب	-13725
أر	-13726
أي	-13727
ؤك	-13728
ثث	-13729
جِ	-13730
حه	-13731
خَ	-13732
دك	-13733
دل	-13734
زق	-13735
سح	-13736
شط	-13737
صو	-13738
صِ	-13739
ضج	-13740
ضه	-13741
طب	-13742
طه	-13743
ظى	-13744
عط	-13745
عن	-13746
غت	-13747
غى	-13748
ـ"	-13749
لئ	-13750
لد	-13751
مز	-13752
مم	-13753
نك	-13754
ىء	-13755
يي	-13756
ٍ،	-13757
ُث	-13758
ّخ	-13759
ْق	-13760
ژي	-13761
ڨا	-13762
ۆل	-13763
ۆم	-13764
▁X	-13765
▁ی	-13766
▁‫	-13767
100	-13768
30.	-13769
Con	-13770
Mom	-13771
Sal	-13772
___	-13773
aan	-13774
acu	-13775
ada	-13776
aed	-13777
amn	-13778
awa	-13779
azz	-13780
bee	-13781
bel	-13782
bul	-13783
bur	-13784
dry	-13785
eah	-13786
eds	-13787
edy	-13788
ema	-13789
erg	-13790
ero	-13791
ext	-13792
fia	-13793
gen	-13794
gun	-13795
hib	-13796
hid	-13797
hiz	-13798
hma	-13799
hol	-13800
imp	-13801
ina	-13802
iné	-13803
ipe	-13804
ira	-13805
iti	-13806
ium	-13807
lan	-13808
lap	-13809
mpt	-13810
nam	-13811
nor	-13812
oha	-13813
raq	-13814
six	-13815
ste	-13816
tar	-13817
ubl	-13818
udd	-13819
ulf	-13820
ura	-13821
yal	-13822
؟!"	-13823
أجل	-13824
أظن	-13825
ألك	-13826
أمل	-13827
ئين	-13828
ائق	-13829
احب	-13830
ارى	-13831
افح	-13832
افه	-13833
انٍ	-13834
باس	-13835
بعد	-13836
بلت	-13837
بوت	-13838
بوه	-13839
بين	-13840
بّؤ	-13841
بّت	-13842
تكر	-13843
تيب	-13844
ثال	-13845
ثلة	-13846
جال	-13847
جزت	-13848
جعل	-13849
جنة	-13850
جهة	-13851
حاض	-13852
حبك	-13853
حتي	-13854
حمر	-13855
حمق	-13856
حمّ	-13857
خذت	-13858
خذه	-13859
خرة	-13860
خرس	-13861
خصص	-13862
خنة	-13863
داف	-13864
درب	-13865
دلع	-13866
ديت	-13867
ديّ	-13868
دّي	-13869
ذيك	-13870
راط	-13871
رحت	-13872
رعة	-13873
رفق	-13874
رّح	-13875
زار	-13876
زاي	-13877
زرق	-13878
زلي	-13879
زنا	-13880
زور	-13881
ستا	-13882
سدد	-13883
سلي	-13884
سوا	-13885
سيل	-13886
شاة	-13887
شاط	-13888
شفة	-13889
شوا	-13890
شيو	-13891
شّى	-13892
صار	-13893
صفح	-13894
صلا	-13895
طاة	-13896
طبق	-13897
طفة	-13898
طنة	-13899
طِع	-13900
عبو	-13901
عتق	-13902
عرض	-13903
علب	-13904
عما	-13905
عنا	-13906
عْر	-13907
غبة	-13908
غرى	-13909
غمة	-13910
فاج	-13911
فرج	-13912
فلي	-13913
فيا	-13914
فّا	-13915
فّل	-13916
قره	-13917
قرّ	-13918
قلب	-13919
قلم	-13920
قوب	-13921
كتة	-13922
كري	-13923
كسي	-13924
كنش	-13925
كنّ	-13926
كّا	-13927
لتَ	-13928
لتُ	-13929
لفة	-13930
لقّ	-13931
لمه	-13932
لّف	-13933
مدت	-13934
مرا	-13935
مسا	-13936
مها	-13937
موت	-13938
ميد	-13939
ميس	-13940
نجو	-13941
ندو	-13942
نزه	-13943
نعا	-13944
نفس	-13945
نيش	-13946
نَّ	-13947
هام	-13948
هدد	-13949
هنّ	-13950
هيل	-13951
هِم	-13952
وجع	-13953
ورد	-13954
وغا	-13955
وفي	-13956
وكم	-13957
ولَ	-13958
وّح	-13959
وّع	-13960
ياز	-13961
ياس	-13962
يتو	-13963
يسر	-13964
َاب	-13965
َار	-13966
َبُ	-13967
َدَ	-13968
َدْ	-13969
َرُ	-13970
َسُ	-13971
َعَ	-13972
َقَ	-13973
َمَ	-13974
َّم	-13975
ِقَ	-13976
ِكُ	-13977
ِلُ	-13978
ِني	-13979
ِيل	-13980
ِيْ	-13981
ّاب	-13982
ّبت	-13983
ّبط	-13984
ّرة	-13985
ّقا	-13986
ّلت	-13987
ْرى	-13988
ْمَ	-13989
پۆن	-13990
ڥري	-13991
ۆري	-13992
▁0.	-13993
▁1,	-13994
▁11	-13995
▁22	-13996
▁30	-13997
▁31	-13998
▁40	-13999
▁80	-14000
▁El	-14001
▁Id	-14002
▁Ku	-14003
▁Or	-14004
▁Pl	-14005
▁Qu	-14006
▁Ra	-14007
▁Sk	-14008
▁Su	-14009
▁__	-14010
▁ge	-14011
▁je	-14012
▁jo	-14013
▁ly	-14014
▁om	-14015
▁pu	-14016
▁اد	-14017
▁اه	-14018
▁بْ	-14019
▁تْ	-14020
▁جس	-14021
▁جْ	-14022
▁حج	-14023
▁حْ	-14024
▁ذك	-14025
▁سج	-14026
▁سح	-14027
▁سد	-14028
▁شَ	-14029
▁صب	-14030
▁ضم	-14031
▁ضي	-14032
▁طّ	-14033
▁عج	-14034
▁عر	-14035
▁عص	-14036
▁عف	-14037
▁فو	-14038
▁فِ	-14039
▁قس	-14040
▁قِ	-14041
▁كح	-14042
▁لَ	-14043
▁ند	-14044
▁نل	-14045
▁ۆه	-14046
aeda	-14047
agne	-14048
aker	-14049
ames	-14050
amic	-14051
ango	-14052
assy	-14053
bers	-14054
bile	-14055
cest	-14056
come	-14057
ctic	-14058
duct	-14059
earl	-14060
educ	-14061
erry	-14062
feat	-14063
fire	-14064
ftar	-14065
gedy	-14066
gent	-14067
give	-14068
hang	-14069
hett	-14070
hiko	-14071
iant	-14072
ills	-14073
imid	-14074
inny	-14075
ivor	-14076
lead	-14077
nder	-14078
nsic	-14079
ompl	-14080
oral	-14081
orse	-14082
osex	-14083
over	-14084
ping	-14085
prin	-14086
renc	-14087
rics	-14088
rill	-14089
rise	-14090
ship	-14091
swer	-14092
swim	-14093
tier	-14094
tled	-14095
tles	-14096
udes	-14097
uled	-14098
unte	-14099
vert	-14100
wise	-14101
writ	-14102
ائعة	-14103
ائية	-14104
ادمة	-14105
اركة	-14106
اليف	-14107
امحك	-14108
اميذ	-14109
انغو	-14110
اهية	-14111
باتك	-14112
بالت	-14113
بكاء	-14114
بّعة	-14115
تحار	-14116
ترجم	-14117
توبر	-14118
تيال	-14119
تيرة	-14120
ثارة	-14121
ثناء	-14122
جئين	-14123
جارا	-14124
جاهل	-14125
جاوب	-14126
جبات	-14127
جنبي	-14128
جيّة	-14129
حابو	-14130
حابي	-14131
حاها	-14132
حباط	-14133
حبًا	-14134
حدهم	-14135
حصان	-14136
حضار	-14137
حضّر	-14138
حيحة	-14139
خاصم	-14140
خيول	-14141
دتني	-14142
دران	-14143
دروج	-14144
درّب	-14145
دياً	-14146
ديما	-14147
ذهبي	-14148
رسال	-14149
رعته	-14150
رفين	-14151
رقام	-14152
روبا	-14153
زكرة	-14154
زمنة	-14155
زياء	-14156
زينا	-14157
زيون	-14158
سائر	-14159
سارا	-14160
ساسي	-14161
شاجر	-14162
شكرا	-14163
شيته	-14164
شينا	-14165
صلحة	-14166
ضاجع	-14167
ضبني	-14168
ضيّة	-14169
طائر	-14170
طاها	-14171
طفاء	-14172
عجِب	-14173
علمك	-14174
عليك	-14175
علّق	-14176
عملة	-14177
عوبة	-14178
عيدة	-14179
عيرك	-14180
غازل	-14181
فارة	-14182
فعلى	-14183
فقوا	-14184
فلون	-14185
قاضى	-14186
قاطع	-14187
قافة	-14188
قالة	-14189
قبال	-14190
قديم	-14191
قّدة	-14192
كلام	-14193
كينا	-14194
كيّف	-14195
كّرت	-14196
لتقط	-14197
لندا	-14198
مانة	-14199
متاع	-14200
متني	-14201
مرأة	-14202
مكِن	-14203
ناني	-14204
نبلة	-14205
ندما	-14206
نقسم	-14207
نيّة	-14208
هدنا	-14209
هلاك	-14210
همال	-14211
هومش	-14212
هُمْ	-14213
واتك	-14214
واتي	-14215
وادث	-14216
وادي	-14217
وارئ	-14218
وانا	-14219
واني	-14220
وبنا	-14221
وتان	-14222
وصلك	-14223
وضّأ	-14224
وعية	-14225
وقات	-14226
وقتي	-14227
وقين	-14228
وليو	-14229
ولّى	-14230
ومية	-14231
ونية	-14232
وهِد	-14233
ويتر	-14234
ويين	-14235
يابة	-14236
يّرت	-14237
َعَل	-14238
َلْي	-14239
َنْد	-14240
ّاها	-14241
ّرني	-14242
ّلبة	-14243
ْتُم	-14244
ْرَج	-14245
ْهَا	-14246
پۆرت	-14247
▁190	-14248
▁191	-14249
▁198	-14250
▁23.	-14251
▁500	-14252
▁Ale	-14253
▁Ask	-14254
▁Atl	-14255
▁Bel	-14256
▁Cla	-14257
▁Dis	-14258
▁Him	-14259
▁Hom	-14260
▁Ice	-14261
▁Lar	-14262
▁Lat	-14263
▁Mad	-14264
▁Mil	-14265
▁Out	-14266
▁Pol	-14267
▁Sac	-14268
▁Sam	-14269
▁Sea	-14270
▁Ser	-14271
▁Son	-14272
▁Sum	-14273
▁Tan	-14274
▁Ter	-14275
▁Too	-14276
▁Tra	-14277
▁Yok	-14278
▁Yum	-14279
▁bee	-14280
▁bik	-14281
▁bud	-14282
▁bug	-14283
▁bun	-14284
▁cin	-14285
▁fan	-14286
▁fro	-14287
▁gat	-14288
▁gre	-14289
▁hyd	-14290
▁lit	-14291
▁log	-14292
▁mix	-14293
▁mod	-14294
▁mud	-14295
▁oxy	-14296
▁pic	-14297
▁pig	-14298
▁rum	-14299
▁sen	-14300
▁sne	-14301
▁tab	-14302
▁tar	-14303
▁tow	-14304
▁tre	-14305
▁unp	-14306
▁vul	-14307
▁أبو	-14308
▁أجه	-14309
▁أحض	-14310
▁أدخ	-14311
▁أرز	-14312
▁أسل	-14313
▁أغض	-14314
▁أفك	-14315
▁أمة	-14316
▁أنف	-14317
▁أهو	-14318
▁أوش	-14319
▁إحت	-14320
▁إله	-14321
▁إير	-14322
▁ادي	-14323
▁اكن	-14324
▁انح	-14325
▁اني	-14326
▁بأخ	-14327
▁بتش	-14328
▁بتن	-14329
▁بدم	-14330
▁بذل	-14331
▁برت	-14332
▁برج	-14333
▁بسا	-14334
▁بطي	-14335
▁بنز	-14336
▁بيس	-14337
▁بيم	-14338
▁بِن	-14339
▁تأس	-14340
▁تاب	-14341
▁تبا	-14342
▁تحق	-14343
▁تحي	-14344
▁تخت	-14345
▁تدخ	-14346
▁تدع	-14347
▁تدل	-14348
▁تسن	-14349
▁تطف	-14350
▁تعس	-14351
▁تفت	-14352
▁تكر	-14353
▁تَر	-14354
▁تُس	-14355
▁تُن	-14356
▁جدد	-14357
▁جرس	-14358
▁جسم	-14359
▁جنس	-14360
▁جيل	-14361
▁خار	-14362
▁خان	-14363
▁خدم	-14364
▁خرب	-14365
▁خشي	-14366
▁دام	-14367
▁دفت	-14368
▁دما	-14369
▁دمي	-14370
▁دوك	-14371
▁دير	-14372
▁ذيل	-14373
▁رات	-14374
▁راق	-14375
▁ربط	-14376
▁رغب	-14377
▁رغم	-14378
▁رنّ	-14379
▁رهي	-14380
▁زين	-14381
▁سأز	-14382
▁سأُ	-14383
▁ساد	-14384
▁ساق	-14385
▁سكن	-14386
▁سلب	-14387
▁سلم	-14388
▁سيئ	-14389
▁سيك	-14390
▁شار	-14391
▁شان	-14392
▁شرح	-14393
▁صحح	-14394
▁صوّ	-14395
▁طبق	-14396
▁طوا	-14397
▁ظلت	-14398
▁عاز	-14399
▁عاط	-14400
▁عجب	-14401
▁علق	-14402
▁عوق	-14403
▁عيب	-14404
▁عَم	-14405
▁غرق	-14406
▁غنى	-14407
▁غيظ	-14408
▁فئة	-14409
▁فاد	-14410
▁فري	-14411
▁فسي	-14412
▁فما	-14413
▁فيش	-14414
▁قاب	-14415
▁قرع	-14416
▁قطي	-14417
▁قعد	-14418
▁قيم	-14419
▁كاث	-14420
▁كاي	-14421
▁كثب	-14422
▁كدا	-14423
▁كوب	-14424
▁كيس	-14425
▁كِن	-14426
▁لإض	-14427
▁لإي	-14428
▁لار	-14429
▁لان	-14430
▁لتس	-14431
▁لتش	-14432
▁لجا	-14433
▁لسه	-14434
▁لقا	-14435
▁لقي	-14436
▁لكر	-14437
▁للز	-14438
▁ليا	-14439
▁ليه	-14440
▁مؤل	-14441
▁مبر	-14442
▁مبي	-14443
▁مجم	-14444
▁مجن	-14445
▁مضت	-14446
▁مضح	-14447
▁معز	-14448
▁معص	-14449
▁مفر	-14450
▁منش	-14451
▁منص	-14452
▁موس	-14453
▁ميّ	-14454
▁مُت	-14455
▁مُن	-14456
▁نتّ	-14457
▁نري	-14458
▁نصب	-14459
▁نضن	-14460
▁نقا	-14461
▁نور	-14462
▁هار	-14463
▁هبط	-14464
▁هتف	-14465
▁هطل	-14466
▁هوا	-14467
▁ودا	-14468
▁وطن	-14469
▁ولن	-14470
▁ولو	-14471
▁وهم	-14472
▁ويش	-14473
▁ياف	-14474
▁يتج	-14475
▁يتن	-14476
▁يخل	-14477
▁يدّ	-14478
▁يرك	-14479
▁يسر	-14480
▁يعا	-14481
▁يعر	-14482
▁يعن	-14483
▁يغت	-14484
▁يفت	-14485
▁يقت	-14486
▁يقم	-14487
▁يلّ	-14488
▁يهو	-14489
▁يَأ	-14490
▁يَا	-14491
▁يُح	-14492
▁١٩٩	-14493
Salam	-14494
Thank	-14495
abase	-14496
abies	-14497
aging	-14498
antic	-14499
ardon	-14500
aries	-14501
arten	-14502
brush	-14503
cases	-14504
cuted	-14505
ebook	-14506
eking	-14507
enger	-14508
esome	-14509
etime	-14510
grand	-14511
holic	-14512
icies	-14513
iding	-14514
inéad	-14515
irted	-14516
isbee	-14517
istry	-14518
iture	-14519
kespe	-14520
obert	-14521
odies	-14522
onest	-14523
ongol	-14524
orney	-14525
osaur	-14526
oshio	-14527
rogen	-14528
sters	-14529
throp	-14530
tight	-14531
urely	-14532
انيين	-14533
باتات	-14534
بادلا	-14535
تحديد	-14536
جازتك	-14537
جدداً	-14538
راتنا	-14539
رماني	-14540
ريقيا	-14541
سباني	-14542
ستمتع	-14543
ستيۆن	-14544
شفيات	-14545
صابات	-14546
صادية	-14547
طارات	-14548
غلبية	-14549
فايات	-14550
فتقدك	-14551
فصالي	-14552
قابله	-14553
قاليد	-14554
قدمًا	-14555
كايات	-14556
كايدو	-14557
كرامة	-14558
كونور	-14559
كّرني	-14560
مارين	-14561
نائية	-14562
نازير	-14563
نانين	-14564
هورية	-14565
وميّة	-14566
يارتي	-14567
ّلطات	-14568
ڥوايا	-14569
▁8:30	-14570
▁Damn	-14571
▁Fear	-14572
▁Find	-14573
▁Fish	-14574
▁Fore	-14575
▁Fred	-14576
▁High	-14577
▁Hold	-14578
▁Hung	-14579
▁Iraq	-14580
▁Kids	-14581
▁LGBT	-14582
▁Lear	-14583
▁Less	-14584
▁Like	-14585
▁Part	-14586
▁Pick	-14587
▁Read	-14588
▁Sapp	-14589
▁Swed	-14590
▁Talk	-14591
▁Walk	-14592
▁Wash	-14593
▁Whom	-14594
▁army	-14595
▁beef	-14596
▁bone	-14597
▁bush	-14598
▁cher	-14599
▁coin	-14600
▁coun	-14601
▁craw	-14602
▁dawn	-14603
▁deer	-14604
▁deli	-14605
▁deny	-14606
▁dies	-14607
▁dism	-14608
▁edge	-14609
▁ends	-14610
▁euro	-14611
▁exha	-14612
▁fate	-14613
▁fits	-14614
▁forb	-14615
▁fulf	-14616
▁harv	-14617
▁imam	-14618
▁jazz	-14619
▁kilo	-14620
▁lady	-14621
▁loan	-14622
▁maid	-14623
▁neck	-14624
▁note	-14625
▁nuts	-14626
▁pand	-14627
▁pond	-14628
▁poss	-14629
▁publ	-14630
▁push	-14631
▁rate	-14632
▁rode	-14633
▁sail	-14634
▁seaw	-14635
▁sexy	-14636
▁shed	-14637
▁skip	-14638
▁snee	-14639
▁soft	-14640
▁sort	-14641
▁tear	-14642
▁temp	-14643
▁tiff	-14644
▁toys	-14645
▁unus	-14646
▁vain	-14647
▁vase	-14648
▁wave	-14649
▁worn	-14650
▁آذان	-14651
▁أباك	-14652
▁أتود	-14653
▁أثقل	-14654
▁أثّر	-14655
▁أجرب	-14656
▁أجلس	-14657
▁أجله	-14658
▁أجيب	-14659
▁أحبب	-14660
▁أحدٌ	-14661
▁أخطر	-14662
▁أخفض	-14663
▁أدرك	-14664
▁أرخص	-14665
▁أرفض	-14666
▁أسوء	-14667
▁أصلا	-14668
▁أصير	-14669
▁أضرب	-14670
▁أطرح	-14671
▁أعدا	-14672
▁أعظم	-14673
▁أغلى	-14674
▁أغنى	-14675
▁أفسد	-14676
▁أقصر	-14677
▁أكتر	-14678
▁أكُن	-14679
▁ألحّ	-14680
▁ألقي	-14681
▁أمضت	-14682
▁أنفه	-14683
▁أهمّ	-14684
▁أوقع	-14685
▁أياً	-14686
▁أيقظ	-14687
▁إبني	-14688
▁إتصل	-14689
▁إخلع	-14690
▁إسمك	-14691
▁إفحص	-14692
▁إلّا	-14693
▁ابحث	-14694
▁ابنك	-14695
▁احنا	-14696
▁ارحل	-14697
▁استأ	-14698
▁اسما	-14699
▁اشعر	-14700
▁اضغط	-14701
▁افتك	-14702
▁افضل	-14703
▁اقطع	-14704
▁الأف	-14705
▁الإع	-14706
▁الإم	-14707
▁التب	-14708
▁التس	-14709
▁التم	-14710
▁الخا	-14711
▁السخ	-14712
▁الصل	-14713
▁الطب	-14714
▁الكن	-14715
▁المز	-14716
▁المو	-14717
▁النح	-14718
▁النز	-14719
▁النق	-14720
▁النَ	-14721
▁الوح	-14722
▁اليد	-14723
▁الْم	-14724
▁املأ	-14725
▁انشغ	-14726
▁انطف	-14727
▁بأيّ	-14728
▁باخت	-14729
▁بارك	-14730
▁بتاع	-14731
▁بحجر	-14732
▁بسوء	-14733
▁بشرط	-14734
▁بغيت	-14735
▁بلال	-14736
▁بلدة	-14737
▁بلدي	-14738
▁بلغة	-14739
▁بمثل	-14740
▁بولي	-14741
▁بيتا	-14742
▁بيني	-14743
▁بَعْ	-14744
▁تاعك	-14745
▁تاكل	-14746
▁تبان	-14747
▁تثبت	-14748
▁تجري	-14749
▁تجنب	-14750
▁تحفظ	-14751
▁تحلق	-14752
▁تخاف	-14753
▁تدخن	-14754
▁ترجع	-14755
▁ترقد	-14756
▁تسعة	-14757
▁تسلق	-14758
▁تسير	-14759
▁تشتم	-14760
▁تشمل	-14761
▁تصوي	-14762
▁تضرب	-14763
▁تطور	-14764
▁تطير	-14765
▁تظنّ	-14766
▁تعام	-14767
▁تعبت	-14768
▁تقدم	-14769
▁تقرا	-14770
▁تقطع	-14771
▁تقفل	-14772
▁تقلّ	-14773
▁تكبر	-14774
▁تكمن	-14775
▁تلحق	-14776
▁تلقي	-14777
▁تمكن	-14778
▁تنتج	-14779
▁تنمو	-14780
▁توجه	-14781
▁توقع	-14782
▁تولي	-14783
▁تيمي	-14784
▁جريس	-14785
▁جسمي	-14786
▁جعان	-14787
▁جعله	-14788
▁جلبت	-14789
▁جنون	-14790
▁جهود	-14791
▁جوجل	-14792
▁حارة	-14793
▁حاسب	-14794
▁حرار	-14795
▁حزام	-14796
▁حساء	-14797
▁حصار	-14798
▁حقنة	-14799
▁حلقة	-14800
▁حلمي	-14801
▁حولي	-14802
▁خافت	-14803
▁خالي	-14804
▁خايف	-14805
▁خسرت	-14806
▁خشيت	-14807
▁خطرا	-14808
▁دائم	-14809
▁دعوة	-14810
▁دفاع	-14811
▁دينا	-14812
▁ذاته	-14813
▁ذراع	-14814
▁ذهاب	-14815
▁رآني	-14816
▁رأته	-14817
▁رأيي	-14818
▁راسل	-14819
▁راسي	-14820
▁راكش	-14821
▁رانا	-14822
▁رخيص	-14823
▁ركضت	-14824
▁زادت	-14825
▁زارت	-14826
▁زجاج	-14827
▁زلتُ	-14828
▁زواج	-14829
▁سآتي	-14830
▁سآكل	-14831
▁سائق	-14832
▁سارة	-14833
▁ساكن	-14834
▁ستفع	-14835
▁سرعة	-14836
▁سرقة	-14837
▁سقسا	-14838
▁سقوط	-14839
▁سكني	-14840
▁سلاح	-14841
▁سمعة	-14842
▁سمكة	-14843
▁سنجد	-14844
▁سيتم	-14845
▁سيخي	-14846
▁شجاع	-14847
▁شجّع	-14848
▁شخصي	-14849
▁شكون	-14850
▁شهير	-14851
▁شوكة	-14852
▁صحتك	-14853
▁صداع	-14854
▁صرخت	-14855
▁صلّى	-14856
▁صيني	-14857
▁طباخ	-14858
▁طبقة	-14859
▁طفلك	-14860
▁طفلي	-14861
▁طلاق	-14862
▁طوني	-14863
▁ظهره	-14864
▁عبور	-14865
▁عداد	-14866
▁عددا	-14867
▁عقله	-14868
▁عقلي	-14869
▁عمرو	-14870
▁عمود	-14871
▁عميد	-14872
▁عيسى	-14873
▁غضبه	-14874
▁غطاه	-14875
▁غنية	-14876
▁غيرت	-14877
▁غيور	-14878
▁فأنا	-14879
▁فإنه	-14880
▁فاجأ	-14881
▁فتّش	-14882
▁فسّر	-14883
▁فطور	-14884
▁قائد	-14885
▁قبائ	-14886
▁قبلة	-14887
▁قدما	-14888
▁قطّع	-14889
▁قفاز	-14890
▁قلبك	-14891
▁قلعة	-14892
▁قلقة	-14893
▁قمنا	-14894
▁قميص	-14895
▁قويا	-14896
▁كؤوس	-14897
▁كبار	-14898
▁كتبا	-14899
▁كذبت	-14900
▁كرسي	-14901
▁كلاً	-14902
▁كلهم	-14903
▁كلّه	-14904
▁كنجي	-14905
▁كوبا	-14906
▁لآخر	-14907
▁لأخي	-14908
▁لبست	-14909
▁لحال	-14910
▁لحسن	-14911
▁لخمس	-14912
▁لصيد	-14913
▁لطفا	-14914
▁لطفل	-14915
▁لعمل	-14916
▁لغتك	-14917
▁لقاء	-14918
▁لقتل	-14919
▁لقلم	-14920
▁لكنت	-14921
▁للبي	-14922
▁للدّ	-14923
▁لهاد	-14924
▁لونه	-14925
▁ليبر	-14926
▁مأسا	-14927
▁ماهر	-14928
▁محمد	-14929
▁مساف	-14930
▁معاه	-14931
▁معتم	-14932
▁معرض	-14933
▁معلّ	-14934
▁معًا	-14935
▁مغرم	-14936
▁ملحد	-14937
▁مللت	-14938
▁ملوّ	-14939
▁ممتن	-14940
▁ممطر	-14941
▁مميز	-14942
▁مناخ	-14943
▁منحت	-14944
▁منده	-14945
▁موظف	-14946
▁ميتا	-14947
▁مْعا	-14948
▁ناري	-14949
▁نجحت	-14950
▁نخاف	-14951
▁نظار	-14952
▁نظيف	-14953
▁نعود	-14954
▁نفهم	-14955
▁ننسا	-14956
▁نَفس	-14957
▁هادو	-14958
▁هاذا	-14959
▁هجوم	-14960
▁هدفي	-14961
▁هدّد	-14962
▁هربت	-14963
▁واشن	-14964
▁واقع	-14965
▁والإ	-14966
▁والب	-14967
▁والخ	-14968
▁وانت	-14969
▁وبين	-14970
▁وجهة	-14971
▁وجّه	-14972
▁وردة	-14973
▁وساد	-14974
▁وعدت	-14975
▁وقال	-14976
▁وكيف	-14977
▁ولاد	-14978
▁وَشْ	-14979
▁يأبه	-14980
▁يامي	-14981
▁يبني	-14982
▁يتاب	-14983
▁يتلف	-14984
▁يجدر	-14985
▁يجلس	-14986
▁يجهل	-14987
▁يديه	-14988
▁يرمي	-14989
▁يزيد	-14990
▁يسمى	-14991
▁يشتم	-14992
▁يشغل	-14993
▁يشكل	-14994
▁يشكو	-14995
▁يصدر	-14996
▁يفكر	-14997
▁يقرع	-14998
▁يكبر	-14999
▁ينزف	-15000
▁يهدر	-15001
▁€30.	-15002
Americ	-15003
Connor	-15004
Please	-15005
atical	-15006
atient	-15007
cember	-15008
ective	-15009
employ	-15010
estyle	-15011
ferent	-15012
graphy	-15013
indled	-15014
inging	-15015
iously	-15016
ipping	-15017
isions	-15018
itated	-15019
itched	-15020
mpagne	-15021
mptoms	-15022
ources	-15023
rolled	-15024
ronted	-15025
soever	-15026
tained	-15027
uggled	-15028
utable	-15029
دروجين	-15030
ستيقاظ	-15031
سكريّة	-15032
فلسطين	-15033
فلونزا	-15034
ولايات	-15035
▁Alban	-15036
▁Alice	-15037
▁Bilal	-15038
▁Carry	-15039
▁Count	-15040
▁Enjoy	-15041
▁Frank	-15042
▁Gener	-15043
▁Grace	-15044
▁Green	-15045
▁Iftar	-15046
▁Karam	-15047
▁Music	-15048
▁Ocean	-15049
▁Pract	-15050
▁Raise	-15051
▁Right	-15052
▁Satan	-15053
▁Shang	-15054
▁South	-15055
▁Syria	-15056
▁Torah	-15057
▁Under	-15058
▁Union	-15059
▁_____	-15060
▁abuse	-15061
▁anime	-15062
▁arbit	-15063
▁baked	-15064
▁banks	-15065
▁begun	-15066
▁bench	-15067
▁broad	-15068
▁chest	-15069
▁claim	-15070
▁click	-15071
▁cloud	-15072
▁cruel	-15073
▁crush	-15074
▁dealt	-15075
▁delay	-15076
▁diary	-15077
▁disab	-15078
▁drama	-15079
▁error	-15080
▁evacu	-15081
▁faced	-15082
▁flies	-15083
▁forth	-15084
▁games	-15085
▁gated	-15086
▁goals	-15087
▁gramm	-15088
▁grown	-15089
▁guard	-15090
▁hoped	-15091
▁humor	-15092
▁indif	-15093
▁jokes	-15094
▁kills	-15095
▁leads	-15096
▁legal	-15097
▁loser	-15098
▁lower	-15099
▁loyal	-15100
▁mercy	-15101
▁meter	-15102
▁micro	-15103
▁minor	-15104
▁naked	-15105
▁occas	-15106
▁ought	-15107
▁parts	-15108
▁puppy	-15109
▁purse	-15110
▁react	-15111
▁recon	-15112
▁revol	-15113
▁rides	-15114
▁scale	-15115
▁score	-15116
▁shake	-15117
▁sites	-15118
▁solar	-15119
▁south	-15120
▁spoon	-15121
▁stalk	-15122
▁suits	-15123
▁sushi	-15124
▁swept	-15125
▁techn	-15126
▁thick	-15127
▁tight	-15128
▁topic	-15129
▁troub	-15130
▁upper	-15131
▁value	-15132
▁waves	-15133
▁wheat	-15134
▁wheel	-15135
▁أبواب	-15136
▁أترجم	-15137
▁أتركك	-15138
▁أتزوج	-15139
▁أثارت	-15140
▁أجابت	-15141
▁أجزاء	-15142
▁أجلها	-15143
▁أحمقا	-15144
▁أخطاء	-15145
▁أذهبُ	-15146
▁أرادا	-15147
▁أسمعت	-15148
▁أشتاق	-15149
▁أصوات	-15150
▁أعداء	-15151
▁أعددت	-15152
▁أعراض	-15153
▁أكرهك	-15154
▁ألفين	-15155
▁أليست	-15156
▁أماكن	-15157
▁أنجزت	-15158
▁أيّها	-15159
▁أُحِب	-15160
▁أُدخل	-15161
▁إبنته	-15162
▁إخوتي	-15163
▁إدخال	-15164
▁إسمها	-15165
▁إقامة	-15166
▁إليكم	-15167
▁إليهم	-15168
▁إيجار	-15169
▁إيديك	-15170
▁إيّاه	-15171
▁اتهام	-15172
▁اتّبع	-15173
▁احترق	-15174
▁استرج	-15175
▁استنى	-15176
▁اعتاد	-15177
▁اقترح	-15178
▁الآلة	-15179
▁الآلي	-15180
▁الأسد	-15181
▁الأمة	-15182
▁الإخت	-15183
▁البدء	-15184
▁البرق	-15185
▁البسي	-15186
▁البقر	-15187
▁البنت	-15188
▁التقى	-15189
▁الجاز	-15190
▁الخطب	-15191
▁الرسم	-15192
▁الرقم	-15193
▁الروح	-15194
▁السلم	-15195
▁الشرب	-15196
▁الصاد	-15197
▁الصمت	-15198
▁الصيد	-15199
▁الصّف	-15200
▁الضغط	-15201
▁الطول	-15202
▁الطير	-15203
▁العقل	-15204
▁العوا	-15205
▁الفوز	-15206
▁القصص	-15207
▁القطّ	-15208
▁الكيم	-15209
▁اللوح	-15210
▁اللّح	-15211
▁المائ	-15212
▁المتا	-15213
▁المجر	-15214
▁المخت	-15215
▁المدن	-15216
▁المرا	-15217
▁المسي	-15218
▁المعب	-15219
▁المعد	-15220
▁الهوا	-15221
▁الوحل	-15222
▁انتحر	-15223
▁بأننا	-15224
▁باباه	-15225
▁بالسر	-15226
▁بالمن	-15227
▁بالوا	-15228
▁بتوقي	-15229
▁بجنون	-15230
▁بحياة	-15231
▁بدأنا	-15232
▁بدلاً	-15233
▁برأيك	-15234
▁بسلام	-15235
▁بطريق	-15236
▁بلدان	-15237
▁بنصيح	-15238
▁بوسعك	-15239
▁بوعده	-15240
▁بُنيت	-15241
▁تاعنا	-15242
▁تاكُل	-15243
▁تبيّن	-15244
▁تتالف	-15245
▁تتغير	-15246
▁تتوقف	-15247
▁تجميل	-15248
▁تحبان	-15249
▁تحسين	-15250
▁تخرّج	-15251
▁تذكرت	-15252
▁تذهبُ	-15253
▁تركيا	-15254
▁تريني	-15255
▁تستعد	-15256
▁تسجيل	-15257
▁تسقسي	-15258
▁تشارك	-15259
▁تشتغل	-15260
▁تصطحب	-15261
▁تعتذر	-15262
▁تعرفت	-15263
▁تعطلت	-15264
▁تعطيه	-15265
▁تعنيه	-15266
▁تقبّل	-15267
▁تكمّل	-15268
▁تلقّت	-15269
▁تمثال	-15270
▁تمثّل	-15271
▁تناسب	-15272
▁تنظيم	-15273
▁توسّل	-15274
▁توضّأ	-15275
▁توفير	-15276
▁جالسة	-15277
▁جديرة	-15278
▁جريدة	-15279
▁جيران	-15280
▁حالًا	-15281
▁حبّها	-15282
▁حزنها	-15283
▁حسنًا	-15284
▁حقًّا	-15285
▁حكمين	-15286
▁حينما	-15287
▁خريطة	-15288
▁خسروا	-15289
▁خطوات	-15290
▁دراهم	-15291
▁دعاني	-15292
▁دوائه	-15293
▁ديالو	-15294
▁ذاتها	-15295
▁ذراعه	-15296
▁ذهبوا	-15297
▁رأيها	-15298
▁رئيسا	-15299
▁رحلتك	-15300
▁زجاجة	-15301
▁زرقاء	-15302
▁سأخرج	-15303
▁سأدفع	-15304
▁سألعب	-15305
▁سأنزل	-15306
▁ساحرة	-15307
▁ساخنة	-15308
▁ساعتك	-15309
▁سافلة	-15310
▁ستأخذ	-15311
▁ستدفع	-15312
▁ستقوم	-15313
▁سخيفا	-15314
▁سررتُ	-15315
▁سلّمت	-15316
▁سنفعل	-15317
▁سوريا	-15318
▁سيصبح	-15319
▁سينيد	-15320
▁شبابه	-15321
▁شفتها	-15322
▁شمسية	-15323
▁شوهِد	-15324
▁صالحا	-15325
▁صحابو	-15326
▁صفراء	-15327
▁ظننتك	-15328
▁ظننته	-15329
▁عاريا	-15330
▁عاصفة	-15331
▁عاهرة	-15332
▁عزيزي	-15333
▁عقوبة	-15334
▁علاجا	-15335
▁عليكِ	-15336
▁عملنا	-15337
▁عمودا	-15338
▁عميقة	-15339
▁عيناه	-15340
▁عَلَي	-15341
▁غلطتي	-15342
▁غيرهم	-15343
▁غيّرت	-15344
▁فاكهة	-15345
▁فانتا	-15346
▁فظيعة	-15347
▁فليكن	-15348
▁فيليب	-15349
▁قاسيا	-15350
▁قاموا	-15351
▁قدّمت	-15352
▁قرارا	-15353
▁قرّرت	-15354
▁قواعد	-15355
▁كامَل	-15356
▁كتبنا	-15357
▁كرئيس	-15358
▁كلابه	-15359
▁لأشهر	-15360
▁لامور	-15361
▁لبنان	-15362
▁لتعلم	-15363
▁لتكون	-15364
▁لحفلة	-15365
▁لحيات	-15366
▁لديكِ	-15367
▁لذيذا	-15368
▁لرحلة	-15369
▁لطبيب	-15370
▁لغتنا	-15371
▁لغتهم	-15372
▁للانت	-15373
▁للتّس	-15374
▁للمست	-15375
▁للناس	-15376
▁لمزيد	-15377
▁لوحدك	-15378
▁مؤخرا	-15379
▁مازلت	-15380
▁مانيش	-15381
▁ماهرة	-15382
▁مثيرا	-15383
▁مجمّع	-15384
▁محقّق	-15385
▁مدمنا	-15386
▁مرتفع	-15387
▁مزرعة	-15388
▁مسافة	-15389
▁مصادر	-15390
▁مضربك	-15391
▁معامن	-15392
▁معايه	-15393
▁معتاد	-15394
▁معجبا	-15395
▁معجزة	-15396
▁معذرة	-15397
▁معقول	-15398
▁مغادر	-15399
▁مغذية	-15400
▁مغرما	-15401
▁مقالا	-15402
▁مكانا	-15403
▁مكاني	-15404
▁مكتبك	-15405
▁مكتبه	-15406
▁مليئا	-15407
▁مليحا	-15408
▁منازل	-15409
▁مناسب	-15410
▁مهندس	-15411
▁موريل	-15412
▁موعدا	-15413
▁موهوب	-15414
▁نافعة	-15415
▁نحبّك	-15416
▁نحتفل	-15417
▁نستعد	-15418
▁نسيتُ	-15419
▁نشتغل	-15420
▁نظرةً	-15421
▁نفهّم	-15422
▁نقودي	-15423
▁نموذج	-15424
▁ننقسم	-15425
▁نهائي	-15426
▁هادئة	-15427
▁واضحا	-15428
▁واضحة	-15429
▁وافقت	-15430
▁واقفة	-15431
▁والفر	-15432
▁وجودي	-15433
▁وصلوا	-15434
▁وعدني	-15435
▁ولداً	-15436
▁ولكنه	-15437
▁وَلَا	-15438
▁يأكله	-15439
▁يأكُل	-15440
▁يبالي	-15441
▁يبتسم	-15442
▁يبدوا	-15443
▁يبدون	-15444
▁يتعلق	-15445
▁يتكون	-15446
▁يحبني	-15447
▁يختار	-15448
▁يخطّط	-15449
▁يريدك	-15450
▁يريده	-15451
▁يصلّي	-15452
▁يعتني	-15453
▁يغيّر	-15454
▁يقارب	-15455
▁يلتقي	-15456
▁ينتمي	-15457
▁ينسون	-15458
▁يهمني	-15459
▁يهودي	-15460
▁يواجه	-15461
▁يواصل	-15462
▁يومين	-15463
▁يُدعى	-15464
▁يُريد	-15465
,000.99	-15466
angered	-15467
aration	-15468
ception	-15469
ificant	-15470
ificial	-15471
inguish	-15472
ologist	-15473
osexual	-15474
stanbul	-15475
venteen	-15476
writing	-15477
لفزيوني	-15478
▁Always	-15479
▁Answer	-15480
▁Cancer	-15481
▁Choose	-15482
▁Democr	-15483
▁Donald	-15484
▁Either	-15485
▁Ferenc	-15486
▁Follow	-15487
▁Google	-15488
▁Living	-15489
▁Louder	-15490
▁Madrid	-15491
▁Mariko	-15492
▁Mongol	-15493
▁Norway	-15494
▁Philip	-15495
▁Really	-15496
▁Robert	-15497
▁Romans	-15498
▁Sinéad	-15499
▁Things	-15500
▁Turkey	-15501
▁adding	-15502
▁adults	-15503
▁agrees	-15504
▁aliens	-15505
▁ancest	-15506
▁aspect	-15507
▁asthma	-15508
▁begged	-15509
▁button	-15510
▁candle	-15511
▁cinema	-15512
▁closet	-15513
▁cookie	-15514
▁counts	-15515
▁craved	-15516
▁defeat	-15517
▁dialed	-15518
▁dumped	-15519
▁easier	-15520
▁eighty	-15521
▁ending	-15522
▁excuse	-15523
▁facing	-15524
▁flight	-15525
▁fluent	-15526
▁forces	-15527
▁forums	-15528
▁fruits	-15529
▁ghosts	-15530
▁groups	-15531
▁guests	-15532
▁handed	-15533
▁hatred	-15534
▁highly	-15535
▁hugged	-15536
▁hunter	-15537
▁ideals	-15538
▁joined	-15539
▁jungle	-15540
▁loudly	-15541
▁lovely	-15542
▁lyrics	-15543
▁manage	-15544
▁messed	-15545
▁meters	-15546
▁mobile	-15547
▁nights	-15548
▁online	-15549
▁oxygen	-15550
▁picnic	-15551
▁plates	-15552
▁poured	-15553
▁proved	-15554
▁purcha	-15555
▁racket	-15556
▁remote	-15557
▁rented	-15558
▁resear	-15559
▁reserv	-15560
▁search	-15561
▁sexual	-15562
▁skinny	-15563
▁smoked	-15564
▁solved	-15565
▁sprang	-15566
▁squirt	-15567
▁stared	-15568
▁stress	-15569
▁struck	-15570
▁sunset	-15571
▁target	-15572
▁tasted	-15573
▁territ	-15574
▁treats	-15575
▁tunnel	-15576
▁uncond	-15577
▁weighs	-15578
▁wisdom	-15579
▁أتحدّث	-15580
▁أتعتقد	-15581
▁أتمنّى	-15582
▁أحتاجك	-15583
▁أحدهما	-15584
▁أزهارا	-15585
▁أسبوعا	-15586
▁أستعمل	-15587
▁أصحابي	-15588
▁أطفالا	-15589
▁أعرفهُ	-15590
▁أعطيته	-15591
▁أغراضك	-15592
▁أقراصا	-15593
▁أكتوبر	-15594
▁أمازيغ	-15595
▁أنفسنا	-15596
▁أيامنا	-15597
▁أُعجِب	-15598
▁إشتريت	-15599
▁إطلاقا	-15600
▁احتمال	-15601
▁اخترتُ	-15602
▁ارتداء	-15603
▁استعاد	-15604
▁استقلت	-15605
▁استلقى	-15606
▁اعتقلت	-15607
▁الأبيض	-15608
▁الأحسن	-15609
▁الأسفل	-15610
▁الأسود	-15611
▁الأصفر	-15612
▁الأمان	-15613
▁الباكر	-15614
▁البعيد	-15615
▁التصرف	-15616
▁التعلم	-15617
▁التمتع	-15618
▁التوتر	-15619
▁الثامن	-15620
▁الجانب	-15621
▁الجواب	-15622
▁الجوال	-15623
▁الجيدة	-15624
▁الحانة	-15625
▁الحلوى	-15626
▁الخيار	-15627
▁الدرجة	-15628
▁الديون	-15629
▁الرحلة	-15630
▁الرحيم	-15631
▁الرّأس	-15632
▁الزجاج	-15633
▁السائق	-15634
▁السرعة	-15635
▁السّعو	-15636
▁السّوق	-15637
▁الشّعر	-15638
▁الصراخ	-15639
▁الطّفل	-15640
▁العاشر	-15641
▁العطلة	-15642
▁الغزير	-15643
▁الغيوم	-15644
▁القاتل	-15645
▁القضية	-15646
▁الكافي	-15647
▁اللجنة	-15648
▁المأزق	-15649
▁المباد	-15650
▁المبلغ	-15651
▁المتهم	-15652
▁المجلة	-15653
▁المجلس	-15654
▁المدير	-15655
▁المذاق	-15656
▁المرآة	-15657
▁المرفق	-15658
▁المرّة	-15659
▁المعطف	-15660
▁المقدس	-15661
▁الموقع	-15662
▁الميتة	-15663
▁النقاش	-15664
▁الواجب	-15665
▁الورقة	-15666
▁اليسرى	-15667
▁اليمين	-15668
▁امتحان	-15669
▁انتحرت	-15670
▁بالأذى	-15671
▁بالخوف	-15672
▁بالدّم	-15673
▁بالصّح	-15674
▁بالعطش	-15675
▁براءته	-15676
▁بطاقتك	-15677
▁بنجاحي	-15678
▁تأخّرت	-15679
▁تؤلمني	-15680
▁تاتوبا	-15681
▁تتزوّج	-15682
▁تحدّثت	-15683
▁تساعده	-15684
▁تسبّبت	-15685
▁تعرّضت	-15686
▁تعرّفت	-15687
▁تفهمني	-15688
▁تكاليف	-15689
▁تكرارا	-15690
▁تنصحني	-15691
▁توصلني	-15692
▁جديدًا	-15693
▁جميعاً	-15694
▁حسابات	-15695
▁حواسيب	-15696
▁خائفاً	-15697
▁داروين	-15698
▁دراجتك	-15699
▁دلوقتي	-15700
▁رحلتنا	-15701
▁زملائه	-15702
▁زملائي	-15703
▁سأقوله	-15704
▁سأكلّم	-15705
▁سأنتظر	-15706
▁سأوصلك	-15707
▁سابورو	-15708
▁ساعدهم	-15709
▁ستتزوج	-15710
▁ستحتاج	-15711
▁سعيدًا	-15712
▁سيتزوج	-15713
▁سيغادر	-15714
▁سينتقل	-15715
▁شجاعتك	-15716
▁شيكاغو	-15717
▁صالحاً	-15718
▁صديقتي	-15719
▁صديقها	-15720
▁صوابها	-15721
▁طبيباً	-15722
▁طفولتي	-15723
▁عاديّا	-15724
▁عالمنا	-15725
▁عايشين	-15726
▁عزيزتي	-15727
▁عنصريّ	-15728
▁عينيها	-15729
▁فرنسية	-15730
▁قاموسا	-15731
▁قريبًا	-15732
▁قليلًا	-15733
▁كيلومت	-15734
▁لأطفال	-15735
▁لإحضار	-15736
▁لإنقاذ	-15737
▁لحوايج	-15738
▁لدانية	-15739
▁لكنّها	-15740
▁للتسوق	-15741
▁لوحدها	-15742
▁ماريكو	-15743
▁مبكراً	-15744
▁متأكدا	-15745
▁متشابه	-15746
▁مجنونة	-15747
▁محبوبا	-15748
▁محبوبة	-15749
▁مدرستك	-15750
▁مذهولا	-15751
▁مراسلة	-15752
▁مرتبكا	-15753
▁مرحبًا	-15754
▁مزدوجة	-15755
▁مسبّقا	-15756
▁مشاعري	-15757
▁مشكلتك	-15758
▁معاديا	-15759
▁معروفة	-15760
▁معرّضا	-15761
▁معقّدة	-15762
▁مفتاحك	-15763
▁مقارنة	-15764
▁مقاطعة	-15765
▁مقدمًا	-15766
▁مكالمة	-15767
▁مكتوبة	-15768
▁ممتازة	-15769
▁ممتعاً	-15770
▁مناسبة	-15771
▁مواطنة	-15772
▁نتقاسم	-15773
▁نُقِلت	-15774
▁واقفين	-15775
▁وسادته	-15776
▁يؤلمني	-15777
▁يؤمنون	-15778
▁يتجاوز	-15779
▁يتواصل	-15780
▁يحضران	-15781
▁يذهبون	-15782
▁يسامحه	-15783
▁يستعمل	-15784
▁يستعير	-15785
▁يعانون	-15786
▁يكرهني	-15787
▁يكونوا	-15788
▁يلّعبو	-15789
▁يُصدّق	-15790
▁يُمكِن	-15791
American	-15792
educated	-15793
ergarten	-15794
ervative	-15795
ilingual	-15796
ironment	-15797
iversary	-15798
kespeare	-15799
▁Chicken	-15800
▁Clearly	-15801
▁Driving	-15802
▁Eternal	-15803
▁Falling	-15804
▁Forgive	-15805
▁Georgia	-15806
▁Hungary	-15807
▁Islamic	-15808
▁Nations	-15809
▁Playing	-15810
▁Sachiko	-15811
▁Sapporo	-15812
▁Sundays	-15813
▁Twitter	-15814
▁Washing	-15815
▁abusive	-15816
▁academy	-15817
▁accompl	-15818
▁achieve	-15819
▁aggress	-15820
▁annoyed	-15821
▁anxious	-15822
▁appears	-15823
▁applied	-15824
▁approve	-15825
▁attacks	-15826
▁benefic	-15827
▁blanket	-15828
▁bullied	-15829
▁butcher	-15830
▁ceiling	-15831
▁charges	-15832
▁command	-15833
▁comment	-15834
▁complex	-15835
▁consequ	-15836
▁context	-15837
▁cookies	-15838
▁cricket	-15839
▁crossed	-15840
▁crushed	-15841
▁current	-15842
▁degrees	-15843
▁despise	-15844
▁despite	-15845
▁diamond	-15846
▁digging	-15847
▁distant	-15848
▁disturb	-15849
▁drowned	-15850
▁drugged	-15851
▁economy	-15852
▁elephan	-15853
▁eternal	-15854
▁examine	-15855
▁extreme	-15856
▁fainted	-15857
▁fastest	-15858
▁finding	-15859
▁funeral	-15860
▁furious	-15861
▁hardest	-15862
▁housing	-15863
▁illegal	-15864
▁imagine	-15865
▁individ	-15866
▁journey	-15867
▁laundry	-15868
▁lessons	-15869
▁liberal	-15870
▁manager	-15871
▁miracle	-15872
▁opposes	-15873
▁package	-15874
▁passion	-15875
▁pencils	-15876
▁physics	-15877
▁planned	-15878
▁pockets	-15879
▁prefers	-15880
▁pressed	-15881
▁privile	-15882
▁product	-15883
▁promote	-15884
▁prophet	-15885
▁quietly	-15886
▁related	-15887
▁remains	-15888
▁removed	-15889
▁revenge	-15890
▁robbing	-15891
▁scratch	-15892
▁secrets	-15893
▁section	-15894
▁service	-15895
▁settled	-15896
▁shaking	-15897
▁smelled	-15898
▁sneaked	-15899
▁snowman	-15900
▁sounded	-15901
▁sources	-15902
▁spiders	-15903
▁spotted	-15904
▁stepped	-15905
▁stunned	-15906
▁sunrise	-15907
▁tallest	-15908
▁thunder	-15909
▁torture	-15910
▁tragedy	-15911
▁victims	-15912
▁volunte	-15913
▁warning	-15914
▁whoever	-15915
▁worship	-15916
▁أصدقاءا	-15917
▁أصدقاؤه	-15918
▁أصدقائه	-15919
▁أعطيتني	-15920
▁أوكونور	-15921
▁أيمكننا	-15922
▁إسبانيا	-15923
▁إمكانية	-15924
▁اتهمتني	-15925
▁اتّصالا	-15926
▁استجوبت	-15927
▁استعارت	-15928
▁استهلاك	-15929
▁الأحذية	-15930
▁الأحوال	-15931
▁الأدوات	-15932
▁الأديان	-15933
▁الأراضي	-15934
▁الأشباح	-15935
▁الأعضاء	-15936
▁الأماكن	-15937
▁الأمسية	-15938
▁الأهمية	-15939
▁الأوقات	-15940
▁الإزعاج	-15941
▁الإطفاء	-15942
▁الإعلان	-15943
▁الإنذار	-15944
▁الاعمال	-15945
▁البستان	-15946
▁البلاست	-15947
▁البنزين	-15948
▁التذكرة	-15949
▁التعبير	-15950
▁الحقائق	-15951
▁الحوادث	-15952
▁الدّاخل	-15953
▁الدّولي	-15954
▁الذاكرة	-15955
▁الرئيسي	-15956
▁الرسائل	-15957
▁الزّواج	-15958
▁الساعات	-15959
▁السريعة	-15960
▁السّفلي	-15961
▁السّكّر	-15962
▁السّلّم	-15963
▁الشركات	-15964
▁الشمسية	-15965
▁الصحراء	-15966
▁الصّحّة	-15967
▁الصّحّي	-15968
▁الضّجّة	-15969
▁الطوابع	-15970
▁الطّلبة	-15971
▁الظهيرة	-15972
▁العلماء	-15973
▁الفرولة	-15974
▁القبّعة	-15975
▁اللَّهُ	-15976
▁المالية	-15977
▁المحلات	-15978
▁المرحاض	-15979
▁المعرفة	-15980
▁المعلمة	-15981
▁المقبلة	-15982
▁المقصود	-15983
▁النارية	-15984
▁الواقعة	-15985
▁الوطنية	-15986
▁بالبكاء	-15987
▁بالحليب	-15988
▁بالزكام	-15989
▁بالسياح	-15990
▁بالضّبط	-15991
▁بمناسبة	-15992
▁بندقيّة	-15993
▁تاتويبا	-15994
▁ترجمتها	-15995
▁تعلّمتُ	-15996
▁تقابلنا	-15997
▁حقيبتها	-15998
▁درّاجته	-15999
▁سيسعدني	-16000
▁طويلتان	-16001
▁عمليّات	-16002
▁قراءتها	-16003
▁لاخاطرش	-16004
▁لتمشيته	-16005
▁لسيّارة	-16006
▁للإسلام	-16007
▁للقانون	-16008
▁للمذياع	-16009
▁مازالني	-16010
▁متأخراً	-16011
▁ميلادها	-16012
▁هوكايدو	-16013
▁والتحدث	-16014
▁والتقدم	-16015
▁والديَّ	-16016
▁والكلام	-16017
▁والنساء	-16018
▁يساعدنا	-16019
▁يستمعون	-16020
▁ينتظرون	-16021
inguistic	-16022
itionally	-16023
▁December	-16024
▁Investig	-16025
▁Republic	-16026
▁Scotland	-16027
▁Speaking	-16028
▁addicted	-16029
▁attorney	-16030
▁becoming	-16031
▁captured	-16032
▁careless	-16033
▁choosing	-16034
▁comments	-16035
▁communic	-16036
▁concentr	-16037
▁contract	-16038
▁database	-16039
▁deceived	-16040
▁declined	-16041
▁demonstr	-16042
▁describe	-16043
▁despised	-16044
▁diamonds	-16045
▁directly	-16046
▁discount	-16047
▁educated	-16048
▁embraced	-16049
▁enjoying	-16050
▁enormous	-16051
▁everyday	-16052
▁examined	-16053
▁eyesight	-16054
▁forensic	-16055
▁gathered	-16056
▁graduate	-16057
▁hydrogen	-16058
▁interrup	-16059
▁inviting	-16060
▁launched	-16061
▁messages	-16062
▁military	-16063
▁notebook	-16064
▁nowadays	-16065
▁overlook	-16066
▁paranoid	-16067
▁peaceful	-16068
▁persuade	-16069
▁pleasant	-16070
▁poisoned	-16071
▁policies	-16072
▁postpone	-16073
▁powerful	-16074
▁predator	-16075
▁prettier	-16076
▁previous	-16077
▁produces	-16078
▁products	-16079
▁rejected	-16080
▁resigned	-16081
▁resulted	-16082
▁revealed	-16083
▁sandwich	-16084
▁separate	-16085
▁shameful	-16086
▁shouting	-16087
▁sickness	-16088
▁skipping	-16089
▁slightly	-16090
▁soldiers	-16091
▁southern	-16092
[...]
